{
  "version": "1.0",
  "truncation": null,
  "padding": null,
  "added_tokens": [
    {
      "id": 0,
      "content": "<unk>",
      "single_word": false,
      "lstrip": false,
      "rstrip": false,
      "normalized": false,
      "special": true
    },
    {
      "id": 1,
      "content": "<s>",
      "single_word": false,
      "lstrip": false,
      "rstrip": false,
      "normalized": false,
      "special": true
    },
    {
      "id": 2,
      "content": "</s>",
      "single_word": false,
      "lstrip": false,
      "rstrip": false,
      "normalized": false,
      "special": true
    },
    {
      "id": 3,
      "content": "<pad>",
      "single_word": false,
      "lstrip": false,
      "rstrip": false,
      "normalized": false,
      "special": true
    }
  ],
  "normalizer": null,
  "pre_tokenizer": {
    "type": "Metaspace",
    "replacement": "▁",
    "prepend_scheme": "first",
    "split": true
  },
  "post_processor": null,
  "decoder": {
    "type": "Metaspace",
    "replacement": "▁",
    "prepend_scheme": "first",
    "split": true
  },
  "model": {
    "type": "BPE",
    "dropout": null,
    "unk_token": "<unk>",
    "continuing_subword_prefix": null,
    "end_of_word_suffix": null,
    "fuse_unk": false,
    "byte_fallback": false,
    "ignore_merges": false,
    "vocab": {
      "<unk>": 0,
      "<s>": 1,
      "</s>": 2,
      "<pad>": 3,
      "\t": 4,
      "\n": 5,
      "\r": 6,
      "!": 7,
      "\"": 8,
      "#": 9,
      "$": 10,
      "%": 11,
      "&": 12,
      "'": 13,
      "(": 14,
      ")": 15,
      "*": 16,
      "+": 17,
      ",": 18,
      "-": 19,
      ".": 20,
      "/": 21,
      "0": 22,
      "1": 23,
      "2": 24,
      "3": 25,
      "4": 26,
      "5": 27,
      "6": 28,
      "7": 29,
      "8": 30,
      "9": 31,
      ":": 32,
      ";": 33,
      "<": 34,
      "=": 35,
      ">": 36,
      "?": 37,
      "@": 38,
      "A": 39,
      "B": 40,
      "C": 41,
      "D": 42,
      "E": 43,
      "F": 44,
      "G": 45,
      "H": 46,
      "I": 47,
      "J": 48,
      "K": 49,
      "L": 50,
      "M": 51,
      "N": 52,
      "O": 53,
      "P": 54,
      "Q": 55,
      "R": 56,
      "S": 57,
      "T": 58,
      "U": 59,
      "V": 60,
      "W": 61,
      "X": 62,
      "Y": 63,
      "Z": 64,
      "[": 65,
      "\\": 66,
      "]": 67,
      "^": 68,
      "_": 69,
      "`": 70,
      "a": 71,
      "b": 72,
      "c": 73,
      "d": 74,
      "e": 75,
      "f": 76,
      "g": 77,
      "h": 78,
      "i": 79,
      "j": 80,
      "k": 81,
      "l": 82,
      "m": 83,
      "n": 84,
      "o": 85,
      "p": 86,
      "q": 87,
      "r": 88,
      "s": 89,
      "t": 90,
      "u": 91,
      "v": 92,
      "w": 93,
      "x": 94,
      "y": 95,
      "z": 96,
      "{": 97,
      "|": 98,
      "}": 99,
      "~": 100,
      " ": 101,
      "¡": 102,
      "£": 103,
      "¥": 104,
      "§": 105,
      "«": 106,
      "¬": 107,
      "®": 108,
      "°": 109,
      "±": 110,
      "²": 111,
      "³": 112,
      "·": 113,
      "¹": 114,
      "º": 115,
      "»": 116,
      "¼": 117,
      "½": 118,
      "¾": 119,
      "¿": 120,
      "À": 121,
      "Á": 122,
      "Ç": 123,
      "È": 124,
      "É": 125,
      "Ê": 126,
      "Î": 127,
      "Ô": 128,
      "×": 129,
      "Ü": 130,
      "ß": 131,
      "à": 132,
      "á": 133,
      "â": 134,
      "ã": 135,
      "ä": 136,
      "å": 137,
      "æ": 138,
      "ç": 139,
      "è": 140,
      "é": 141,
      "ê": 142,
      "ë": 143,
      "ì": 144,
      "í": 145,
      "î": 146,
      "ï": 147,
      "ð": 148,
      "ñ": 149,
      "ò": 150,
      "ó": 151,
      "ô": 152,
      "ö": 153,
      "÷": 154,
      "ø": 155,
      "ù": 156,
      "ú": 157,
      "û": 158,
      "ü": 159,
      "ā": 160,
      "ć": 161,
      "č": 162,
      "ē": 163,
      "ę": 164,
      "ě": 165,
      "ī": 166,
      "ı": 167,
      "ł": 168,
      "ŋ": 169,
      "Ō": 170,
      "ō": 171,
      "ő": 172,
      "Œ": 173,
      "œ": 174,
      "ş": 175,
      "š": 176,
      "ū": 177,
      "ƃ": 178,
      "ǎ": 179,
      "ǐ": 180,
      "ǒ": 181,
      "ǔ": 182,
      "ǘ": 183,
      "ǚ": 184,
      "ǜ": 185,
      "ǝ": 186,
      "ț": 187,
      "ɐ": 188,
      "ɑ": 189,
      "ɒ": 190,
      "ɔ": 191,
      "ə": 192,
      "ɛ": 193,
      "ɜ": 194,
      "ɡ": 195,
      "ɥ": 196,
      "ɪ": 197,
      "ɯ": 198,
      "ɹ": 199,
      "ɾ": 200,
      "ʃ": 201,
      "ʇ": 202,
      "ʊ": 203,
      "ʌ": 204,
      "ʍ": 205,
      "ʒ": 206,
      "ˇ": 207,
      "ˈ": 208,
      "ˊ": 209,
      "ˋ": 210,
      "ˌ": 211,
      "ː": 212,
      "̀": 213,
      "́": 214,
      "̃": 215,
      "̄": 216,
      "̅": 217,
      "Δ": 218,
      "Ε": 219,
      "Λ": 220,
      "Μ": 221,
      "Π": 222,
      "Σ": 223,
      "Ω": 224,
      "ά": 225,
      "έ": 226,
      "ή": 227,
      "ί": 228,
      "α": 229,
      "β": 230,
      "γ": 231,
      "ε": 232,
      "ζ": 233,
      "η": 234,
      "θ": 235,
      "ι": 236,
      "κ": 237,
      "λ": 238,
      "μ": 239,
      "ν": 240,
      "ξ": 241,
      "ο": 242,
      "π": 243,
      "ρ": 244,
      "ς": 245,
      "σ": 246,
      "τ": 247,
      "υ": 248,
      "φ": 249,
      "χ": 250,
      "ψ": 251,
      "ω": 252,
      "ό": 253,
      "ώ": 254,
      "ϕ": 255,
      "А": 256,
      "Б": 257,
      "Г": 258,
      "Д": 259,
      "З": 260,
      "И": 261,
      "К": 262,
      "М": 263,
      "Н": 264,
      "П": 265,
      "С": 266,
      "Ф": 267,
      "Э": 268,
      "Я": 269,
      "а": 270,
      "б": 271,
      "в": 272,
      "г": 273,
      "д": 274,
      "е": 275,
      "ж": 276,
      "з": 277,
      "и": 278,
      "й": 279,
      "к": 280,
      "л": 281,
      "м": 282,
      "н": 283,
      "о": 284,
      "п": 285,
      "р": 286,
      "с": 287,
      "т": 288,
      "у": 289,
      "ф": 290,
      "х": 291,
      "ц": 292,
      "ч": 293,
      "ш": 294,
      "щ": 295,
      "ы": 296,
      "ь": 297,
      "э": 298,
      "ю": 299,
      "я": 300,
      "ё": 301,
      "،": 302,
      "؟": 303,
      "آ": 304,
      "أ": 305,
      "إ": 306,
      "ئ": 307,
      "ا": 308,
      "ب": 309,
      "ة": 310,
      "ت": 311,
      "ج": 312,
      "ح": 313,
      "د": 314,
      "ذ": 315,
      "ر": 316,
      "ز": 317,
      "س": 318,
      "ش": 319,
      "ض": 320,
      "ط": 321,
      "ع": 322,
      "غ": 323,
      "ف": 324,
      "ق": 325,
      "ك": 326,
      "ل": 327,
      "م": 328,
      "ن": 329,
      "ه": 330,
      "و": 331,
      "ى": 332,
      "ي": 333,
      "ं": 334,
      "उ": 335,
      "ए": 336,
      "औ": 337,
      "क": 338,
      "ग": 339,
      "च": 340,
      "ज": 341,
      "ड": 342,
      "त": 343,
      "द": 344,
      "न": 345,
      "प": 346,
      "ब": 347,
      "म": 348,
      "य": 349,
      "र": 350,
      "व": 351,
      "श": 352,
      "स": 353,
      "ह": 354,
      "़": 355,
      "ा": 356,
      "ि": 357,
      "ी": 358,
      "े": 359,
      "ै": 360,
      "ो": 361,
      "्": 362,
      "।": 363,
      "இ": 364,
      "ஒ": 365,
      "க": 366,
      "ச": 367,
      "த": 368,
      "ன": 369,
      "ம": 370,
      "ய": 371,
      "ர": 372,
      "வ": 373,
      "ா": 374,
      "ி": 375,
      "ு": 376,
      "ை": 377,
      "ோ": 378,
      "்": 379,
      "ರ": 380,
      "ก": 381,
      "ค": 382,
      "ง": 383,
      "จ": 384,
      "ฉ": 385,
      "ช": 386,
      "ณ": 387,
      "ด": 388,
      "ต": 389,
      "ท": 390,
      "น": 391,
      "บ": 392,
      "ป": 393,
      "ผ": 394,
      "พ": 395,
      "ม": 396,
      "ย": 397,
      "ร": 398,
      "ล": 399,
      "ว": 400,
      "ส": 401,
      "ห": 402,
      "อ": 403,
      "ะ": 404,
      "ั": 405,
      "า": 406,
      "ำ": 407,
      "ิ": 408,
      "ี": 409,
      "ื": 410,
      "ุ": 411,
      "เ": 412,
      "โ": 413,
      "ไ": 414,
      "็": 415,
      "่": 416,
      "้": 417,
      "์": 418,
      "๑": 419,
      "ḥ": 420,
      "Ἀ": 421,
      " ": 422,
      "​": 423,
      "‍": 424,
      "‑": 425,
      "–": 426,
      "—": 427,
      "―": 428,
      "‘": 429,
      "’": 430,
      "“": 431,
      "”": 432,
      "•": 433,
      "…": 434,
      "′": 435,
      "″": 436,
      "‿": 437,
      "⁄": 438,
      "⁰": 439,
      "⁴": 440,
      "⁵": 441,
      "⁶": 442,
      "⁹": 443,
      "⁺": 444,
      "⁻": 445,
      "ⁿ": 446,
      "₀": 447,
      "₁": 448,
      "₂": 449,
      "₃": 450,
      "₄": 451,
      "₅": 452,
      "ₐ": 453,
      "€": 454,
      "₹": 455,
      "℃": 456,
      "℉": 457,
      "™": 458,
      "⅓": 459,
      "⅔": 460,
      "Ⅰ": 461,
      "Ⅱ": 462,
      "Ⅲ": 463,
      "Ⅸ": 464,
      "←": 465,
      "↑": 466,
      "→": 467,
      "↓": 468,
      "↔": 469,
      "⇌": 470,
      "⇒": 471,
      "∀": 472,
      "∂": 473,
      "∃": 474,
      "∆": 475,
      "∈": 476,
      "∑": 477,
      "−": 478,
      "∓": 479,
      "√": 480,
      "∛": 481,
      "∝": 482,
      "∞": 483,
      "∠": 484,
      "∣": 485,
      "∧": 486,
      "∨": 487,
      "∩": 488,
      "∪": 489,
      "∫": 490,
      "∮": 491,
      "∴": 492,
      "∶": 493,
      "≈": 494,
      "≠": 495,
      "≡": 496,
      "≤": 497,
      "≥": 498,
      "⊙": 499,
      "⊢": 500,
      "⋅": 501,
      "⋯": 502,
      "⏰": 503,
      "①": 504,
      "②": 505,
      "③": 506,
      "④": 507,
      "⑤": 508,
      "⑥": 509,
      "─": 510,
      "━": 511,
      "┌": 512,
      "┐": 513,
      "└": 514,
      "┘": 515,
      "┻": 516,
      "╯": 517,
      "▁": 518,
      "□": 519,
      "△": 520,
      "○": 521,
      "●": 522,
      "◠": 523,
      "◦": 524,
      "☀": 525,
      "☁": 526,
      "★": 527,
      "☔": 528,
      "☕": 529,
      "☺": 530,
      "♀": 531,
      "♂": 532,
      "♠": 533,
      "♣": 534,
      "♥": 535,
      "♦": 536,
      "♪": 537,
      "♫": 538,
      "♭": 539,
      "♻": 540,
      "⚠": 541,
      "⚽": 542,
      "✓": 543,
      "✧": 544,
      "✨": 545,
      "✿": 546,
      "❄": 547,
      "❤": 548,
      "⟩": 549,
      "⭐": 550,
      "⼀": 551,
      "　": 552,
      "、": 553,
      "。": 554,
      "〈": 555,
      "〉": 556,
      "《": 557,
      "》": 558,
      "「": 559,
      "」": 560,
      "『": 561,
      "』": 562,
      "【": 563,
      "】": 564,
      "〜": 565,
      "あ": 566,
      "い": 567,
      "う": 568,
      "え": 569,
      "お": 570,
      "か": 571,
      "が": 572,
      "き": 573,
      "ぎ": 574,
      "く": 575,
      "ぐ": 576,
      "け": 577,
      "げ": 578,
      "こ": 579,
      "ご": 580,
      "さ": 581,
      "ざ": 582,
      "し": 583,
      "じ": 584,
      "す": 585,
      "せ": 586,
      "そ": 587,
      "ぞ": 588,
      "た": 589,
      "だ": 590,
      "ち": 591,
      "っ": 592,
      "つ": 593,
      "て": 594,
      "で": 595,
      "と": 596,
      "ど": 597,
      "な": 598,
      "に": 599,
      "ぬ": 600,
      "ね": 601,
      "の": 602,
      "は": 603,
      "ば": 604,
      "び": 605,
      "ぴ": 606,
      "ぶ": 607,
      "ぷ": 608,
      "へ": 609,
      "べ": 610,
      "ほ": 611,
      "ま": 612,
      "み": 613,
      "む": 614,
      "め": 615,
      "も": 616,
      "や": 617,
      "ゆ": 618,
      "ょ": 619,
      "よ": 620,
      "ら": 621,
      "り": 622,
      "る": 623,
      "れ": 624,
      "ろ": 625,
      "わ": 626,
      "を": 627,
      "ん": 628,
      "ア": 629,
      "ィ": 630,
      "イ": 631,
      "ウ": 632,
      "ェ": 633,
      "エ": 634,
      "オ": 635,
      "カ": 636,
      "ガ": 637,
      "キ": 638,
      "ギ": 639,
      "ク": 640,
      "グ": 641,
      "ケ": 642,
      "ゲ": 643,
      "コ": 644,
      "ゴ": 645,
      "サ": 646,
      "ザ": 647,
      "シ": 648,
      "ジ": 649,
      "ス": 650,
      "ズ": 651,
      "セ": 652,
      "ゼ": 653,
      "ソ": 654,
      "タ": 655,
      "ダ": 656,
      "チ": 657,
      "ッ": 658,
      "ツ": 659,
      "テ": 660,
      "デ": 661,
      "ト": 662,
      "ド": 663,
      "ナ": 664,
      "ニ": 665,
      "ネ": 666,
      "ノ": 667,
      "ハ": 668,
      "バ": 669,
      "パ": 670,
      "ヒ": 671,
      "ビ": 672,
      "ピ": 673,
      "フ": 674,
      "プ": 675,
      "ベ": 676,
      "ホ": 677,
      "ボ": 678,
      "ポ": 679,
      "マ": 680,
      "ム": 681,
      "メ": 682,
      "ャ": 683,
      "ュ": 684,
      "ョ": 685,
      "ヨ": 686,
      "ラ": 687,
      "リ": 688,
      "ル": 689,
      "レ": 690,
      "ロ": 691,
      "ワ": 692,
      "ン": 693,
      "・": 694,
      "ー": 695,
      "ㄅ": 696,
      "ㄆ": 697,
      "ㄇ": 698,
      "ㄉ": 699,
      "ㄊ": 700,
      "ㄌ": 701,
      "ㄍ": 702,
      "ㄏ": 703,
      "ㄐ": 704,
      "ㄑ": 705,
      "ㄒ": 706,
      "ㄓ": 707,
      "ㄔ": 708,
      "ㄕ": 709,
      "ㄖ": 710,
      "ㄚ": 711,
      "ㄛ": 712,
      "ㄜ": 713,
      "ㄝ": 714,
      "ㄞ": 715,
      "ㄟ": 716,
      "ㄠ": 717,
      "ㄡ": 718,
      "ㄢ": 719,
      "ㄣ": 720,
      "ㄤ": 721,
      "ㄥ": 722,
      "ㄧ": 723,
      "ㄨ": 724,
      "ㄩ": 725,
      "ㅂ": 726,
      "㎡": 727,
      "一": 728,
      "丁": 729,
      "七": 730,
      "万": 731,
      "丈": 732,
      "三": 733,
      "上": 734,
      "下": 735,
      "不": 736,
      "与": 737,
      "丐": 738,
      "丑": 739,
      "专": 740,
      "且": 741,
      "世": 742,
      "丘": 743,
      "丙": 744,
      "业": 745,
      "丛": 746,
      "东": 747,
      "丝": 748,
      "丞": 749,
      "丟": 750,
      "丢": 751,
      "两": 752,
      "严": 753,
      "並": 754,
      "丧": 755,
      "个": 756,
      "丫": 757,
      "中": 758,
      "丰": 759,
      "串": 760,
      "临": 761,
      "丸": 762,
      "丹": 763,
      "为": 764,
      "主": 765,
      "丼": 766,
      "丽": 767,
      "举": 768,
      "丿": 769,
      "乃": 770,
      "久": 771,
      "么": 772,
      "义": 773,
      "之": 774,
      "乌": 775,
      "乍": 776,
      "乎": 777,
      "乏": 778,
      "乐": 779,
      "乒": 780,
      "乓": 781,
      "乔": 782,
      "乖": 783,
      "乘": 784,
      "乙": 785,
      "九": 786,
      "乞": 787,
      "也": 788,
      "习": 789,
      "乡": 790,
      "书": 791,
      "买": 792,
      "乱": 793,
      "乳": 794,
      "乾": 795,
      "亀": 796,
      "了": 797,
      "予": 798,
      "争": 799,
      "事": 800,
      "二": 801,
      "亍": 802,
      "于": 803,
      "亏": 804,
      "云": 805,
      "互": 806,
      "五": 807,
      "井": 808,
      "亘": 809,
      "亚": 810,
      "些": 811,
      "亞": 812,
      "亟": 813,
      "亡": 814,
      "亢": 815,
      "交": 816,
      "亥": 817,
      "亦": 818,
      "产": 819,
      "亨": 820,
      "亩": 821,
      "享": 822,
      "京": 823,
      "亭": 824,
      "亮": 825,
      "亲": 826,
      "亳": 827,
      "亵": 828,
      "人": 829,
      "亻": 830,
      "亿": 831,
      "什": 832,
      "仁": 833,
      "仃": 834,
      "仄": 835,
      "仅": 836,
      "仆": 837,
      "仇": 838,
      "今": 839,
      "介": 840,
      "仍": 841,
      "从": 842,
      "仑": 843,
      "仓": 844,
      "仔": 845,
      "仕": 846,
      "他": 847,
      "仗": 848,
      "付": 849,
      "仙": 850,
      "仞": 851,
      "仟": 852,
      "仡": 853,
      "代": 854,
      "令": 855,
      "以": 856,
      "仨": 857,
      "仪": 858,
      "们": 859,
      "仰": 860,
      "仲": 861,
      "件": 862,
      "价": 863,
      "任": 864,
      "份": 865,
      "仿": 866,
      "企": 867,
      "伇": 868,
      "伊": 869,
      "伍": 870,
      "伎": 871,
      "伏": 872,
      "伐": 873,
      "休": 874,
      "众": 875,
      "优": 876,
      "伙": 877,
      "会": 878,
      "伝": 879,
      "伞": 880,
      "伟": 881,
      "传": 882,
      "伤": 883,
      "伦": 884,
      "伪": 885,
      "伫": 886,
      "伯": 887,
      "估": 888,
      "伴": 889,
      "伶": 890,
      "伸": 891,
      "似": 892,
      "伽": 893,
      "但": 894,
      "佈": 895,
      "位": 896,
      "低": 897,
      "住": 898,
      "佐": 899,
      "佑": 900,
      "体": 901,
      "何": 902,
      "佗": 903,
      "佘": 904,
      "余": 905,
      "佚": 906,
      "佛": 907,
      "作": 908,
      "佝": 909,
      "佞": 910,
      "佟": 911,
      "你": 912,
      "佢": 913,
      "佣": 914,
      "佩": 915,
      "佬": 916,
      "佯": 917,
      "佰": 918,
      "佳": 919,
      "佻": 920,
      "佼": 921,
      "佾": 922,
      "使": 923,
      "侃": 924,
      "侄": 925,
      "來": 926,
      "侈": 927,
      "例": 928,
      "侍": 929,
      "侏": 930,
      "侗": 931,
      "供": 932,
      "依": 933,
      "侠": 934,
      "侣": 935,
      "侥": 936,
      "侦": 937,
      "侧": 938,
      "侨": 939,
      "侪": 940,
      "侬": 941,
      "侮": 942,
      "侯": 943,
      "侵": 944,
      "便": 945,
      "係": 946,
      "促": 947,
      "俄": 948,
      "俊": 949,
      "俏": 950,
      "俐": 951,
      "俑": 952,
      "俗": 953,
      "俘": 954,
      "俚": 955,
      "保": 956,
      "俞": 957,
      "俟": 958,
      "信": 959,
      "俨": 960,
      "俩": 961,
      "俭": 962,
      "修": 963,
      "俯": 964,
      "俱": 965,
      "俳": 966,
      "俸": 967,
      "倉": 968,
      "個": 969,
      "倍": 970,
      "倏": 971,
      "們": 972,
      "倒": 973,
      "倔": 974,
      "倖": 975,
      "倘": 976,
      "候": 977,
      "倚": 978,
      "倜": 979,
      "借": 980,
      "倡": 981,
      "倦": 982,
      "倩": 983,
      "倪": 984,
      "倫": 985,
      "倬": 986,
      "倭": 987,
      "债": 988,
      "值": 989,
      "倾": 990,
      "偃": 991,
      "偆": 992,
      "假": 993,
      "偈": 994,
      "偉": 995,
      "偌": 996,
      "偎": 997,
      "偏": 998,
      "偕": 999,
      "做": 1000,
      "停": 1001,
      "健": 1002,
      "偵": 1003,
      "偶": 1004,
      "偷": 1005,
      "偻": 1006,
      "偽": 1007,
      "偿": 1008,
      "傀": 1009,
      "傅": 1010,
      "傈": 1011,
      "傍": 1012,
      "備": 1013,
      "傣": 1014,
      "傥": 1015,
      "储": 1016,
      "催": 1017,
      "傲": 1018,
      "傳": 1019,
      "傻": 1020,
      "傾": 1021,
      "像": 1022,
      "僚": 1023,
      "僧": 1024,
      "僳": 1025,
      "僵": 1026,
      "價": 1027,
      "僻": 1028,
      "儀": 1029,
      "億": 1030,
      "儅": 1031,
      "儆": 1032,
      "儋": 1033,
      "儒": 1034,
      "儘": 1035,
      "儡": 1036,
      "優": 1037,
      "儿": 1038,
      "兀": 1039,
      "允": 1040,
      "元": 1041,
      "兄": 1042,
      "充": 1043,
      "兆": 1044,
      "兇": 1045,
      "先": 1046,
      "光": 1047,
      "克": 1048,
      "免": 1049,
      "兑": 1050,
      "兒": 1051,
      "兔": 1052,
      "党": 1053,
      "兜": 1054,
      "兢": 1055,
      "入": 1056,
      "內": 1057,
      "全": 1058,
      "兩": 1059,
      "八": 1060,
      "公": 1061,
      "六": 1062,
      "兮": 1063,
      "兰": 1064,
      "共": 1065,
      "关": 1066,
      "兴": 1067,
      "兵": 1068,
      "其": 1069,
      "具": 1070,
      "典": 1071,
      "兹": 1072,
      "养": 1073,
      "兼": 1074,
      "兽": 1075,
      "冀": 1076,
      "冂": 1077,
      "内": 1078,
      "冈": 1079,
      "冉": 1080,
      "冊": 1081,
      "册": 1082,
      "再": 1083,
      "冒": 1084,
      "冕": 1085,
      "冗": 1086,
      "写": 1087,
      "军": 1088,
      "农": 1089,
      "冠": 1090,
      "冢": 1091,
      "冤": 1092,
      "冥": 1093,
      "冬": 1094,
      "冯": 1095,
      "冰": 1096,
      "冲": 1097,
      "决": 1098,
      "况": 1099,
      "冶": 1100,
      "冷": 1101,
      "冻": 1102,
      "冼": 1103,
      "冽": 1104,
      "净": 1105,
      "凄": 1106,
      "准": 1107,
      "凇": 1108,
      "凉": 1109,
      "凋": 1110,
      "凌": 1111,
      "凍": 1112,
      "减": 1113,
      "凑": 1114,
      "凛": 1115,
      "凝": 1116,
      "几": 1117,
      "凡": 1118,
      "凤": 1119,
      "処": 1120,
      "凫": 1121,
      "凭": 1122,
      "凯": 1123,
      "凰": 1124,
      "凳": 1125,
      "凶": 1126,
      "凸": 1127,
      "凹": 1128,
      "出": 1129,
      "击": 1130,
      "函": 1131,
      "凿": 1132,
      "刀": 1133,
      "刁": 1134,
      "刃": 1135,
      "分": 1136,
      "切": 1137,
      "刈": 1138,
      "刊": 1139,
      "刍": 1140,
      "刎": 1141,
      "刑": 1142,
      "划": 1143,
      "列": 1144,
      "刘": 1145,
      "则": 1146,
      "刚": 1147,
      "创": 1148,
      "初": 1149,
      "删": 1150,
      "判": 1151,
      "別": 1152,
      "刨": 1153,
      "利": 1154,
      "刪": 1155,
      "别": 1156,
      "刮": 1157,
      "到": 1158,
      "刳": 1159,
      "制": 1160,
      "刷": 1161,
      "券": 1162,
      "刹": 1163,
      "刺": 1164,
      "刻": 1165,
      "剁": 1166,
      "剂": 1167,
      "剃": 1168,
      "則": 1169,
      "削": 1170,
      "剌": 1171,
      "前": 1172,
      "剑": 1173,
      "剔": 1174,
      "剖": 1175,
      "剛": 1176,
      "剡": 1177,
      "剥": 1178,
      "剧": 1179,
      "剩": 1180,
      "剪": 1181,
      "副": 1182,
      "割": 1183,
      "創": 1184,
      "剽": 1185,
      "劃": 1186,
      "劇": 1187,
      "劈": 1188,
      "劑": 1189,
      "劓": 1190,
      "力": 1191,
      "劝": 1192,
      "办": 1193,
      "功": 1194,
      "加": 1195,
      "务": 1196,
      "劢": 1197,
      "劣": 1198,
      "动": 1199,
      "助": 1200,
      "努": 1201,
      "劫": 1202,
      "劭": 1203,
      "励": 1204,
      "劲": 1205,
      "劳": 1206,
      "劾": 1207,
      "势": 1208,
      "勃": 1209,
      "勇": 1210,
      "勉": 1211,
      "勋": 1212,
      "勐": 1213,
      "勒": 1214,
      "動": 1215,
      "勘": 1216,
      "務": 1217,
      "勝": 1218,
      "勞": 1219,
      "募": 1220,
      "勤": 1221,
      "勧": 1222,
      "勵": 1223,
      "勺": 1224,
      "勾": 1225,
      "勿": 1226,
      "匀": 1227,
      "包": 1228,
      "匆": 1229,
      "匈": 1230,
      "匍": 1231,
      "匐": 1232,
      "匕": 1233,
      "化": 1234,
      "北": 1235,
      "匙": 1236,
      "匝": 1237,
      "匠": 1238,
      "匡": 1239,
      "匣": 1240,
      "匪": 1241,
      "匮": 1242,
      "匹": 1243,
      "区": 1244,
      "医": 1245,
      "匾": 1246,
      "匿": 1247,
      "區": 1248,
      "十": 1249,
      "千": 1250,
      "升": 1251,
      "午": 1252,
      "卉": 1253,
      "半": 1254,
      "华": 1255,
      "协": 1256,
      "卑": 1257,
      "卒": 1258,
      "卓": 1259,
      "協": 1260,
      "单": 1261,
      "卖": 1262,
      "南": 1263,
      "単": 1264,
      "博": 1265,
      "卜": 1266,
      "卟": 1267,
      "占": 1268,
      "卡": 1269,
      "卢": 1270,
      "卤": 1271,
      "卦": 1272,
      "卧": 1273,
      "卫": 1274,
      "卯": 1275,
      "印": 1276,
      "危": 1277,
      "即": 1278,
      "却": 1279,
      "卵": 1280,
      "卷": 1281,
      "卸": 1282,
      "卻": 1283,
      "卿": 1284,
      "厂": 1285,
      "厄": 1286,
      "厅": 1287,
      "历": 1288,
      "厉": 1289,
      "压": 1290,
      "厌": 1291,
      "厕": 1292,
      "厘": 1293,
      "厚": 1294,
      "厝": 1295,
      "原": 1296,
      "厢": 1297,
      "厥": 1298,
      "厦": 1299,
      "厨": 1300,
      "厩": 1301,
      "厮": 1302,
      "去": 1303,
      "县": 1304,
      "叁": 1305,
      "参": 1306,
      "參": 1307,
      "又": 1308,
      "叉": 1309,
      "及": 1310,
      "友": 1311,
      "双": 1312,
      "反": 1313,
      "发": 1314,
      "叔": 1315,
      "取": 1316,
      "受": 1317,
      "变": 1318,
      "叙": 1319,
      "叛": 1320,
      "叟": 1321,
      "叠": 1322,
      "叢": 1323,
      "口": 1324,
      "古": 1325,
      "句": 1326,
      "另": 1327,
      "叨": 1328,
      "叩": 1329,
      "只": 1330,
      "叫": 1331,
      "召": 1332,
      "叭": 1333,
      "叮": 1334,
      "可": 1335,
      "台": 1336,
      "史": 1337,
      "右": 1338,
      "叶": 1339,
      "号": 1340,
      "司": 1341,
      "叹": 1342,
      "叻": 1343,
      "叽": 1344,
      "吁": 1345,
      "吃": 1346,
      "各": 1347,
      "吆": 1348,
      "合": 1349,
      "吉": 1350,
      "吊": 1351,
      "同": 1352,
      "名": 1353,
      "后": 1354,
      "吏": 1355,
      "吐": 1356,
      "向": 1357,
      "吒": 1358,
      "吓": 1359,
      "吕": 1360,
      "吗": 1361,
      "君": 1362,
      "吝": 1363,
      "吞": 1364,
      "吟": 1365,
      "吠": 1366,
      "否": 1367,
      "吧": 1368,
      "吨": 1369,
      "吩": 1370,
      "含": 1371,
      "听": 1372,
      "吭": 1373,
      "吮": 1374,
      "启": 1375,
      "吱": 1376,
      "吴": 1377,
      "吵": 1378,
      "吶": 1379,
      "吸": 1380,
      "吹": 1381,
      "吻": 1382,
      "吼": 1383,
      "吾": 1384,
      "呀": 1385,
      "呂": 1386,
      "呃": 1387,
      "呆": 1388,
      "呈": 1389,
      "告": 1390,
      "呐": 1391,
      "呓": 1392,
      "呔": 1393,
      "呕": 1394,
      "呗": 1395,
      "员": 1396,
      "呛": 1397,
      "呜": 1398,
      "呢": 1399,
      "呤": 1400,
      "呦": 1401,
      "周": 1402,
      "呱": 1403,
      "味": 1404,
      "呵": 1405,
      "呻": 1406,
      "呼": 1407,
      "命": 1408,
      "咀": 1409,
      "咂": 1410,
      "咄": 1411,
      "咆": 1412,
      "咋": 1413,
      "和": 1414,
      "咍": 1415,
      "咎": 1416,
      "咏": 1417,
      "咐": 1418,
      "咒": 1419,
      "咔": 1420,
      "咕": 1421,
      "咖": 1422,
      "咙": 1423,
      "咚": 1424,
      "咛": 1425,
      "咝": 1426,
      "咦": 1427,
      "咧": 1428,
      "咨": 1429,
      "咩": 1430,
      "咪": 1431,
      "咫": 1432,
      "咬": 1433,
      "咯": 1434,
      "咱": 1435,
      "咲": 1436,
      "咳": 1437,
      "咸": 1438,
      "咻": 1439,
      "咽": 1440,
      "咾": 1441,
      "咿": 1442,
      "哀": 1443,
      "品": 1444,
      "哄": 1445,
      "哆": 1446,
      "哇": 1447,
      "哈": 1448,
      "哉": 1449,
      "响": 1450,
      "哎": 1451,
      "哏": 1452,
      "哐": 1453,
      "哑": 1454,
      "哒": 1455,
      "哔": 1456,
      "哗": 1457,
      "哝": 1458,
      "哞": 1459,
      "哟": 1460,
      "員": 1461,
      "哥": 1462,
      "哦": 1463,
      "哧": 1464,
      "哨": 1465,
      "哩": 1466,
      "哪": 1467,
      "哭": 1468,
      "哮": 1469,
      "哲": 1470,
      "哺": 1471,
      "哼": 1472,
      "哽": 1473,
      "唆": 1474,
      "唇": 1475,
      "唉": 1476,
      "唏": 1477,
      "唐": 1478,
      "唑": 1479,
      "唔": 1480,
      "唠": 1481,
      "唤": 1482,
      "唧": 1483,
      "唬": 1484,
      "售": 1485,
      "唯": 1486,
      "唱": 1487,
      "唳": 1488,
      "唷": 1489,
      "唾": 1490,
      "啁": 1491,
      "啃": 1492,
      "啄": 1493,
      "商": 1494,
      "啊": 1495,
      "啍": 1496,
      "問": 1497,
      "啖": 1498,
      "啜": 1499,
      "啡": 1500,
      "啤": 1501,
      "啥": 1502,
      "啦": 1503,
      "啪": 1504,
      "啫": 1505,
      "啬": 1506,
      "啭": 1507,
      "啮": 1508,
      "啰": 1509,
      "啶": 1510,
      "啸": 1511,
      "啻": 1512,
      "啼": 1513,
      "啾": 1514,
      "喀": 1515,
      "喂": 1516,
      "喃": 1517,
      "善": 1518,
      "喆": 1519,
      "喇": 1520,
      "喉": 1521,
      "喊": 1522,
      "喋": 1523,
      "喔": 1524,
      "喘": 1525,
      "喙": 1526,
      "喜": 1527,
      "喝": 1528,
      "喧": 1529,
      "喪": 1530,
      "喬": 1531,
      "單": 1532,
      "喱": 1533,
      "喳": 1534,
      "喵": 1535,
      "喷": 1536,
      "喻": 1537,
      "喽": 1538,
      "嗅": 1539,
      "嗉": 1540,
      "嗌": 1541,
      "嗎": 1542,
      "嗑": 1543,
      "嗒": 1544,
      "嗓": 1545,
      "嗔": 1546,
      "嗖": 1547,
      "嗚": 1548,
      "嗜": 1549,
      "嗝": 1550,
      "嗟": 1551,
      "嗡": 1552,
      "嗣": 1553,
      "嗤": 1554,
      "嗥": 1555,
      "嗦": 1556,
      "嗨": 1557,
      "嗪": 1558,
      "嗬": 1559,
      "嗯": 1560,
      "嗲": 1561,
      "嗳": 1562,
      "嗷": 1563,
      "嗽": 1564,
      "嘀": 1565,
      "嘁": 1566,
      "嘅": 1567,
      "嘆": 1568,
      "嘈": 1569,
      "嘉": 1570,
      "嘌": 1571,
      "嘎": 1572,
      "嘗": 1573,
      "嘘": 1574,
      "嘚": 1575,
      "嘛": 1576,
      "嘞": 1577,
      "嘟": 1578,
      "嘣": 1579,
      "嘤": 1580,
      "嘧": 1581,
      "嘬": 1582,
      "嘭": 1583,
      "嘱": 1584,
      "嘲": 1585,
      "嘴": 1586,
      "嘶": 1587,
      "嘹": 1588,
      "嘻": 1589,
      "嘿": 1590,
      "噌": 1591,
      "噎": 1592,
      "噙": 1593,
      "噜": 1594,
      "噢": 1595,
      "器": 1596,
      "噩": 1597,
      "噪": 1598,
      "噫": 1599,
      "噬": 1600,
      "噱": 1601,
      "噴": 1602,
      "噻": 1603,
      "噼": 1604,
      "嚎": 1605,
      "嚏": 1606,
      "嚐": 1607,
      "嚓": 1608,
      "嚣": 1609,
      "嚱": 1610,
      "嚷": 1611,
      "嚼": 1612,
      "囁": 1613,
      "囂": 1614,
      "囊": 1615,
      "囍": 1616,
      "囔": 1617,
      "囚": 1618,
      "四": 1619,
      "回": 1620,
      "因": 1621,
      "囡": 1622,
      "团": 1623,
      "囤": 1624,
      "囧": 1625,
      "园": 1626,
      "困": 1627,
      "囱": 1628,
      "図": 1629,
      "围": 1630,
      "囹": 1631,
      "固": 1632,
      "国": 1633,
      "图": 1634,
      "囿": 1635,
      "圃": 1636,
      "圄": 1637,
      "圆": 1638,
      "圈": 1639,
      "國": 1640,
      "圍": 1641,
      "園": 1642,
      "圓": 1643,
      "圖": 1644,
      "圜": 1645,
      "土": 1646,
      "圣": 1647,
      "在": 1648,
      "圭": 1649,
      "圯": 1650,
      "地": 1651,
      "圳": 1652,
      "场": 1653,
      "圾": 1654,
      "址": 1655,
      "坂": 1656,
      "均": 1657,
      "坊": 1658,
      "坍": 1659,
      "坎": 1660,
      "坏": 1661,
      "坐": 1662,
      "坑": 1663,
      "块": 1664,
      "坚": 1665,
      "坛": 1666,
      "坝": 1667,
      "坞": 1668,
      "坟": 1669,
      "坠": 1670,
      "坡": 1671,
      "坤": 1672,
      "坦": 1673,
      "坨": 1674,
      "坪": 1675,
      "坯": 1676,
      "坳": 1677,
      "坷": 1678,
      "坼": 1679,
      "垂": 1680,
      "垃": 1681,
      "垄": 1682,
      "垅": 1683,
      "型": 1684,
      "垒": 1685,
      "垚": 1686,
      "垛": 1687,
      "垠": 1688,
      "垢": 1689,
      "垣": 1690,
      "垦": 1691,
      "垩": 1692,
      "垫": 1693,
      "垮": 1694,
      "垵": 1695,
      "埂": 1696,
      "埃": 1697,
      "埋": 1698,
      "城": 1699,
      "埔": 1700,
      "域": 1701,
      "埠": 1702,
      "執": 1703,
      "埸": 1704,
      "培": 1705,
      "基": 1706,
      "堀": 1707,
      "堂": 1708,
      "堅": 1709,
      "堆": 1710,
      "堇": 1711,
      "堑": 1712,
      "堕": 1713,
      "堡": 1714,
      "堤": 1715,
      "堪": 1716,
      "堰": 1717,
      "報": 1718,
      "場": 1719,
      "堵": 1720,
      "塊": 1721,
      "塌": 1722,
      "塑": 1723,
      "塔": 1724,
      "塘": 1725,
      "塚": 1726,
      "塞": 1727,
      "填": 1728,
      "塵": 1729,
      "塾": 1730,
      "墀": 1731,
      "境": 1732,
      "墅": 1733,
      "墉": 1734,
      "墊": 1735,
      "墓": 1736,
      "墙": 1737,
      "墜": 1738,
      "增": 1739,
      "墟": 1740,
      "墨": 1741,
      "墩": 1742,
      "壁": 1743,
      "壑": 1744,
      "壓": 1745,
      "壕": 1746,
      "壘": 1747,
      "壤": 1748,
      "士": 1749,
      "壬": 1750,
      "壮": 1751,
      "壯": 1752,
      "声": 1753,
      "壳": 1754,
      "壶": 1755,
      "壹": 1756,
      "壽": 1757,
      "处": 1758,
      "夆": 1759,
      "备": 1760,
      "复": 1761,
      "夏": 1762,
      "夔": 1763,
      "夕": 1764,
      "外": 1765,
      "夙": 1766,
      "多": 1767,
      "夜": 1768,
      "够": 1769,
      "夠": 1770,
      "夢": 1771,
      "夥": 1772,
      "大": 1773,
      "天": 1774,
      "太": 1775,
      "夫": 1776,
      "夭": 1777,
      "央": 1778,
      "夯": 1779,
      "失": 1780,
      "头": 1781,
      "夷": 1782,
      "夸": 1783,
      "夹": 1784,
      "夺": 1785,
      "夾": 1786,
      "奂": 1787,
      "奄": 1788,
      "奇": 1789,
      "奈": 1790,
      "奉": 1791,
      "奋": 1792,
      "奎": 1793,
      "奏": 1794,
      "契": 1795,
      "奔": 1796,
      "奕": 1797,
      "奖": 1798,
      "套": 1799,
      "奘": 1800,
      "奠": 1801,
      "奢": 1802,
      "奥": 1803,
      "奧": 1804,
      "女": 1805,
      "奴": 1806,
      "奶": 1807,
      "奸": 1808,
      "她": 1809,
      "好": 1810,
      "如": 1811,
      "妃": 1812,
      "妄": 1813,
      "妆": 1814,
      "妇": 1815,
      "妈": 1816,
      "妊": 1817,
      "妍": 1818,
      "妒": 1819,
      "妓": 1820,
      "妖": 1821,
      "妗": 1822,
      "妘": 1823,
      "妙": 1824,
      "妞": 1825,
      "妤": 1826,
      "妥": 1827,
      "妨": 1828,
      "妩": 1829,
      "妪": 1830,
      "妮": 1831,
      "妲": 1832,
      "妳": 1833,
      "妹": 1834,
      "妻": 1835,
      "妾": 1836,
      "姆": 1837,
      "姊": 1838,
      "始": 1839,
      "姐": 1840,
      "姑": 1841,
      "姓": 1842,
      "委": 1843,
      "姗": 1844,
      "姚": 1845,
      "姜": 1846,
      "姝": 1847,
      "姣": 1848,
      "姥": 1849,
      "姨": 1850,
      "姬": 1851,
      "姮": 1852,
      "姱": 1853,
      "姹": 1854,
      "姻": 1855,
      "姿": 1856,
      "威": 1857,
      "娃": 1858,
      "娄": 1859,
      "娅": 1860,
      "娆": 1861,
      "娇": 1862,
      "娑": 1863,
      "娓": 1864,
      "娘": 1865,
      "娚": 1866,
      "娜": 1867,
      "娟": 1868,
      "娠": 1869,
      "娣": 1870,
      "娥": 1871,
      "娩": 1872,
      "娱": 1873,
      "娲": 1874,
      "娴": 1875,
      "娶": 1876,
      "婀": 1877,
      "婆": 1878,
      "婉": 1879,
      "婕": 1880,
      "婚": 1881,
      "婢": 1882,
      "婧": 1883,
      "婪": 1884,
      "婳": 1885,
      "婴": 1886,
      "婵": 1887,
      "婶": 1888,
      "婷": 1889,
      "婺": 1890,
      "婿": 1891,
      "媒": 1892,
      "媚": 1893,
      "媛": 1894,
      "媲": 1895,
      "媳": 1896,
      "嫁": 1897,
      "嫂": 1898,
      "嫉": 1899,
      "嫌": 1900,
      "嫔": 1901,
      "嫡": 1902,
      "嫣": 1903,
      "嫦": 1904,
      "嫩": 1905,
      "嬅": 1906,
      "嬉": 1907,
      "嬗": 1908,
      "嬛": 1909,
      "嬴": 1910,
      "子": 1911,
      "孑": 1912,
      "孔": 1913,
      "孕": 1914,
      "字": 1915,
      "存": 1916,
      "孙": 1917,
      "孚": 1918,
      "孜": 1919,
      "孝": 1920,
      "孟": 1921,
      "孢": 1922,
      "季": 1923,
      "孤": 1924,
      "学": 1925,
      "孩": 1926,
      "孪": 1927,
      "孰": 1928,
      "孱": 1929,
      "孳": 1930,
      "孵": 1931,
      "學": 1932,
      "孺": 1933,
      "孽": 1934,
      "宁": 1935,
      "它": 1936,
      "宅": 1937,
      "宇": 1938,
      "守": 1939,
      "安": 1940,
      "宋": 1941,
      "完": 1942,
      "宏": 1943,
      "宓": 1944,
      "宕": 1945,
      "宗": 1946,
      "官": 1947,
      "宙": 1948,
      "定": 1949,
      "宛": 1950,
      "宜": 1951,
      "宝": 1952,
      "实": 1953,
      "宠": 1954,
      "审": 1955,
      "客": 1956,
      "宣": 1957,
      "室": 1958,
      "宥": 1959,
      "宦": 1960,
      "宪": 1961,
      "宫": 1962,
      "宮": 1963,
      "宰": 1964,
      "害": 1965,
      "宴": 1966,
      "宵": 1967,
      "家": 1968,
      "宸": 1969,
      "容": 1970,
      "宽": 1971,
      "宾": 1972,
      "宿": 1973,
      "寂": 1974,
      "寄": 1975,
      "寅": 1976,
      "密": 1977,
      "寇": 1978,
      "富": 1979,
      "寐": 1980,
      "寒": 1981,
      "寓": 1982,
      "寝": 1983,
      "寞": 1984,
      "察": 1985,
      "寡": 1986,
      "寤": 1987,
      "寥": 1988,
      "實": 1989,
      "寨": 1990,
      "寫": 1991,
      "寰": 1992,
      "寵": 1993,
      "寶": 1994,
      "寸": 1995,
      "对": 1996,
      "寺": 1997,
      "寻": 1998,
      "导": 1999,
      "対": 2000,
      "寿": 2001,
      "封": 2002,
      "射": 2003,
      "将": 2004,
      "將": 2005,
      "專": 2006,
      "尉": 2007,
      "尊": 2008,
      "尋": 2009,
      "對": 2010,
      "導": 2011,
      "小": 2012,
      "少": 2013,
      "尔": 2014,
      "尕": 2015,
      "尖": 2016,
      "尘": 2017,
      "尚": 2018,
      "尝": 2019,
      "尤": 2020,
      "尧": 2021,
      "尬": 2022,
      "就": 2023,
      "尴": 2024,
      "尸": 2025,
      "尹": 2026,
      "尺": 2027,
      "尼": 2028,
      "尽": 2029,
      "尾": 2030,
      "尿": 2031,
      "局": 2032,
      "屁": 2033,
      "层": 2034,
      "居": 2035,
      "屈": 2036,
      "屉": 2037,
      "届": 2038,
      "屋": 2039,
      "屌": 2040,
      "屎": 2041,
      "屏": 2042,
      "屑": 2043,
      "展": 2044,
      "属": 2045,
      "屠": 2046,
      "屡": 2047,
      "屣": 2048,
      "層": 2049,
      "履": 2050,
      "屯": 2051,
      "山": 2052,
      "屹": 2053,
      "屿": 2054,
      "岀": 2055,
      "岁": 2056,
      "岂": 2057,
      "岌": 2058,
      "岐": 2059,
      "岑": 2060,
      "岔": 2061,
      "岖": 2062,
      "岗": 2063,
      "岘": 2064,
      "岚": 2065,
      "岛": 2066,
      "岡": 2067,
      "岩": 2068,
      "岫": 2069,
      "岬": 2070,
      "岭": 2071,
      "岱": 2072,
      "岳": 2073,
      "岷": 2074,
      "岸": 2075,
      "岿": 2076,
      "峄": 2077,
      "峇": 2078,
      "峋": 2079,
      "峒": 2080,
      "峙": 2081,
      "峡": 2082,
      "峥": 2083,
      "峦": 2084,
      "峨": 2085,
      "峪": 2086,
      "峭": 2087,
      "峰": 2088,
      "島": 2089,
      "峻": 2090,
      "崂": 2091,
      "崆": 2092,
      "崇": 2093,
      "崎": 2094,
      "崑": 2095,
      "崔": 2096,
      "崖": 2097,
      "崙": 2098,
      "崛": 2099,
      "崩": 2100,
      "崭": 2101,
      "崴": 2102,
      "崽": 2103,
      "嵊": 2104,
      "嵋": 2105,
      "嵌": 2106,
      "嵐": 2107,
      "嵘": 2108,
      "嵛": 2109,
      "嵩": 2110,
      "嵬": 2111,
      "嵴": 2112,
      "嶂": 2113,
      "嶙": 2114,
      "嶷": 2115,
      "巅": 2116,
      "巍": 2117,
      "川": 2118,
      "州": 2119,
      "巡": 2120,
      "巢": 2121,
      "工": 2122,
      "左": 2123,
      "巧": 2124,
      "巨": 2125,
      "巩": 2126,
      "巫": 2127,
      "差": 2128,
      "己": 2129,
      "已": 2130,
      "巳": 2131,
      "巴": 2132,
      "巷": 2133,
      "巻": 2134,
      "巽": 2135,
      "巾": 2136,
      "币": 2137,
      "市": 2138,
      "布": 2139,
      "帅": 2140,
      "帆": 2141,
      "师": 2142,
      "希": 2143,
      "帏": 2144,
      "帐": 2145,
      "帕": 2146,
      "帖": 2147,
      "帘": 2148,
      "帙": 2149,
      "帚": 2150,
      "帛": 2151,
      "帜": 2152,
      "帝": 2153,
      "带": 2154,
      "帧": 2155,
      "席": 2156,
      "帮": 2157,
      "帰": 2158,
      "帶": 2159,
      "帷": 2160,
      "常": 2161,
      "帼": 2162,
      "帽": 2163,
      "幂": 2164,
      "幄": 2165,
      "幅": 2166,
      "幌": 2167,
      "幔": 2168,
      "幕": 2169,
      "幡": 2170,
      "幢": 2171,
      "幫": 2172,
      "干": 2173,
      "平": 2174,
      "年": 2175,
      "并": 2176,
      "幸": 2177,
      "幺": 2178,
      "幻": 2179,
      "幼": 2180,
      "幽": 2181,
      "幾": 2182,
      "广": 2183,
      "広": 2184,
      "庄": 2185,
      "庆": 2186,
      "庇": 2187,
      "床": 2188,
      "序": 2189,
      "庐": 2190,
      "庑": 2191,
      "库": 2192,
      "应": 2193,
      "底": 2194,
      "庖": 2195,
      "店": 2196,
      "庙": 2197,
      "庚": 2198,
      "府": 2199,
      "庞": 2200,
      "废": 2201,
      "度": 2202,
      "座": 2203,
      "庭": 2204,
      "庵": 2205,
      "庶": 2206,
      "康": 2207,
      "庸": 2208,
      "廉": 2209,
      "廊": 2210,
      "廓": 2211,
      "廖": 2212,
      "廚": 2213,
      "廟": 2214,
      "廣": 2215,
      "廳": 2216,
      "延": 2217,
      "廷": 2218,
      "建": 2219,
      "廿": 2220,
      "开": 2221,
      "弁": 2222,
      "异": 2223,
      "弃": 2224,
      "弄": 2225,
      "弈": 2226,
      "弊": 2227,
      "弋": 2228,
      "弌": 2229,
      "式": 2230,
      "弑": 2231,
      "弓": 2232,
      "引": 2233,
      "弗": 2234,
      "弘": 2235,
      "弛": 2236,
      "弟": 2237,
      "张": 2238,
      "弥": 2239,
      "弦": 2240,
      "弧": 2241,
      "弩": 2242,
      "弭": 2243,
      "弯": 2244,
      "弱": 2245,
      "張": 2246,
      "強": 2247,
      "弹": 2248,
      "强": 2249,
      "弾": 2250,
      "彈": 2251,
      "彌": 2252,
      "归": 2253,
      "当": 2254,
      "录": 2255,
      "彗": 2256,
      "彙": 2257,
      "彝": 2258,
      "形": 2259,
      "彤": 2260,
      "彦": 2261,
      "彧": 2262,
      "彩": 2263,
      "彪": 2264,
      "彬": 2265,
      "彭": 2266,
      "彰": 2267,
      "影": 2268,
      "彳": 2269,
      "彷": 2270,
      "役": 2271,
      "彻": 2272,
      "彼": 2273,
      "往": 2274,
      "征": 2275,
      "径": 2276,
      "待": 2277,
      "很": 2278,
      "徉": 2279,
      "徊": 2280,
      "律": 2281,
      "後": 2282,
      "徐": 2283,
      "徑": 2284,
      "徒": 2285,
      "得": 2286,
      "徘": 2287,
      "徙": 2288,
      "徜": 2289,
      "從": 2290,
      "御": 2291,
      "徨": 2292,
      "復": 2293,
      "循": 2294,
      "徭": 2295,
      "微": 2296,
      "徵": 2297,
      "德": 2298,
      "徽": 2299,
      "心": 2300,
      "必": 2301,
      "忆": 2302,
      "忌": 2303,
      "忍": 2304,
      "忏": 2305,
      "忐": 2306,
      "忑": 2307,
      "忒": 2308,
      "忖": 2309,
      "志": 2310,
      "忘": 2311,
      "忙": 2312,
      "応": 2313,
      "忝": 2314,
      "忠": 2315,
      "忡": 2316,
      "忤": 2317,
      "忧": 2318,
      "快": 2319,
      "忱": 2320,
      "念": 2321,
      "忻": 2322,
      "忽": 2323,
      "忿": 2324,
      "怀": 2325,
      "态": 2326,
      "怂": 2327,
      "怅": 2328,
      "怆": 2329,
      "怎": 2330,
      "怒": 2331,
      "怔": 2332,
      "怕": 2333,
      "怖": 2334,
      "怜": 2335,
      "思": 2336,
      "怠": 2337,
      "怡": 2338,
      "急": 2339,
      "怦": 2340,
      "性": 2341,
      "怨": 2342,
      "怪": 2343,
      "怯": 2344,
      "总": 2345,
      "怼": 2346,
      "怿": 2347,
      "恃": 2348,
      "恆": 2349,
      "恋": 2350,
      "恍": 2351,
      "恐": 2352,
      "恒": 2353,
      "恕": 2354,
      "恙": 2355,
      "恢": 2356,
      "恣": 2357,
      "恤": 2358,
      "恨": 2359,
      "恩": 2360,
      "恪": 2361,
      "恫": 2362,
      "恬": 2363,
      "恭": 2364,
      "息": 2365,
      "恰": 2366,
      "恳": 2367,
      "恶": 2368,
      "恺": 2369,
      "恻": 2370,
      "恼": 2371,
      "恽": 2372,
      "恿": 2373,
      "悄": 2374,
      "悅": 2375,
      "悉": 2376,
      "悌": 2377,
      "悍": 2378,
      "悒": 2379,
      "悔": 2380,
      "悖": 2381,
      "悚": 2382,
      "悟": 2383,
      "悠": 2384,
      "患": 2385,
      "悦": 2386,
      "您": 2387,
      "悪": 2388,
      "悬": 2389,
      "悯": 2390,
      "悱": 2391,
      "悲": 2392,
      "悴": 2393,
      "悸": 2394,
      "悼": 2395,
      "情": 2396,
      "惆": 2397,
      "惇": 2398,
      "惊": 2399,
      "惋": 2400,
      "惑": 2401,
      "惕": 2402,
      "惘": 2403,
      "惚": 2404,
      "惜": 2405,
      "惟": 2406,
      "惠": 2407,
      "惦": 2408,
      "惧": 2409,
      "惨": 2410,
      "惩": 2411,
      "惫": 2412,
      "惬": 2413,
      "惭": 2414,
      "惮": 2415,
      "惯": 2416,
      "惰": 2417,
      "想": 2418,
      "惶": 2419,
      "惹": 2420,
      "惺": 2421,
      "愁": 2422,
      "愈": 2423,
      "愉": 2424,
      "愎": 2425,
      "意": 2426,
      "愕": 2427,
      "愚": 2428,
      "愛": 2429,
      "感": 2430,
      "愠": 2431,
      "愣": 2432,
      "愤": 2433,
      "愧": 2434,
      "愫": 2435,
      "愿": 2436,
      "慈": 2437,
      "慊": 2438,
      "態": 2439,
      "慌": 2440,
      "慎": 2441,
      "慑": 2442,
      "慕": 2443,
      "慘": 2444,
      "慢": 2445,
      "慣": 2446,
      "慧": 2447,
      "慨": 2448,
      "慮": 2449,
      "慰": 2450,
      "慵": 2451,
      "慶": 2452,
      "慷": 2453,
      "憋": 2454,
      "憎": 2455,
      "憐": 2456,
      "憔": 2457,
      "憤": 2458,
      "憧": 2459,
      "憨": 2460,
      "憩": 2461,
      "憬": 2462,
      "憶": 2463,
      "憾": 2464,
      "懂": 2465,
      "懈": 2466,
      "應": 2467,
      "懊": 2468,
      "懑": 2469,
      "懒": 2470,
      "懦": 2471,
      "懵": 2472,
      "懷": 2473,
      "懼": 2474,
      "懿": 2475,
      "戀": 2476,
      "戈": 2477,
      "戊": 2478,
      "戌": 2479,
      "戍": 2480,
      "戎": 2481,
      "戏": 2482,
      "成": 2483,
      "我": 2484,
      "戒": 2485,
      "戔": 2486,
      "戕": 2487,
      "或": 2488,
      "战": 2489,
      "戚": 2490,
      "戛": 2491,
      "戟": 2492,
      "戦": 2493,
      "截": 2494,
      "戮": 2495,
      "戰": 2496,
      "戲": 2497,
      "戳": 2498,
      "戴": 2499,
      "戶": 2500,
      "户": 2501,
      "戸": 2502,
      "戾": 2503,
      "房": 2504,
      "所": 2505,
      "扁": 2506,
      "扇": 2507,
      "扉": 2508,
      "手": 2509,
      "扌": 2510,
      "才": 2511,
      "扎": 2512,
      "扑": 2513,
      "扒": 2514,
      "打": 2515,
      "扔": 2516,
      "払": 2517,
      "托": 2518,
      "扛": 2519,
      "扣": 2520,
      "扦": 2521,
      "执": 2522,
      "扩": 2523,
      "扫": 2524,
      "扬": 2525,
      "扭": 2526,
      "扮": 2527,
      "扯": 2528,
      "扰": 2529,
      "扳": 2530,
      "扶": 2531,
      "批": 2532,
      "扼": 2533,
      "找": 2534,
      "承": 2535,
      "技": 2536,
      "抄": 2537,
      "抉": 2538,
      "把": 2539,
      "抑": 2540,
      "抒": 2541,
      "抓": 2542,
      "抔": 2543,
      "投": 2544,
      "抖": 2545,
      "抗": 2546,
      "折": 2547,
      "抚": 2548,
      "抛": 2549,
      "抠": 2550,
      "抡": 2551,
      "抢": 2552,
      "护": 2553,
      "报": 2554,
      "抨": 2555,
      "披": 2556,
      "抬": 2557,
      "抱": 2558,
      "抵": 2559,
      "抹": 2560,
      "押": 2561,
      "抽": 2562,
      "抿": 2563,
      "拂": 2564,
      "拄": 2565,
      "担": 2566,
      "拆": 2567,
      "拇": 2568,
      "拈": 2569,
      "拉": 2570,
      "拋": 2571,
      "拌": 2572,
      "拍": 2573,
      "拎": 2574,
      "拐": 2575,
      "拒": 2576,
      "拓": 2577,
      "拔": 2578,
      "拖": 2579,
      "拗": 2580,
      "拘": 2581,
      "拙": 2582,
      "招": 2583,
      "拜": 2584,
      "拟": 2585,
      "拠": 2586,
      "拢": 2587,
      "拣": 2588,
      "拥": 2589,
      "拦": 2590,
      "拧": 2591,
      "拨": 2592,
      "择": 2593,
      "括": 2594,
      "拭": 2595,
      "拮": 2596,
      "拯": 2597,
      "拱": 2598,
      "拳": 2599,
      "拴": 2600,
      "拷": 2601,
      "拼": 2602,
      "拽": 2603,
      "拾": 2604,
      "拿": 2605,
      "持": 2606,
      "挂": 2607,
      "指": 2608,
      "按": 2609,
      "挎": 2610,
      "挑": 2611,
      "挖": 2612,
      "挚": 2613,
      "挛": 2614,
      "挝": 2615,
      "挞": 2616,
      "挟": 2617,
      "挠": 2618,
      "挡": 2619,
      "挣": 2620,
      "挤": 2621,
      "挥": 2622,
      "挨": 2623,
      "挪": 2624,
      "挫": 2625,
      "振": 2626,
      "挲": 2627,
      "挹": 2628,
      "挺": 2629,
      "挽": 2630,
      "捂": 2631,
      "捅": 2632,
      "捆": 2633,
      "捉": 2634,
      "捌": 2635,
      "捍": 2636,
      "捎": 2637,
      "捏": 2638,
      "捐": 2639,
      "捕": 2640,
      "捞": 2641,
      "损": 2642,
      "捡": 2643,
      "换": 2644,
      "捣": 2645,
      "捧": 2646,
      "捩": 2647,
      "据": 2648,
      "捱": 2649,
      "捲": 2650,
      "捶": 2651,
      "捷": 2652,
      "捺": 2653,
      "捻": 2654,
      "掀": 2655,
      "掂": 2656,
      "授": 2657,
      "掉": 2658,
      "掌": 2659,
      "掏": 2660,
      "掐": 2661,
      "排": 2662,
      "掖": 2663,
      "掘": 2664,
      "掛": 2665,
      "掠": 2666,
      "探": 2667,
      "掣": 2668,
      "接": 2669,
      "控": 2670,
      "推": 2671,
      "掩": 2672,
      "措": 2673,
      "掬": 2674,
      "掰": 2675,
      "掳": 2676,
      "掷": 2677,
      "掸": 2678,
      "掺": 2679,
      "揄": 2680,
      "揉": 2681,
      "揍": 2682,
      "描": 2683,
      "提": 2684,
      "插": 2685,
      "揖": 2686,
      "揚": 2687,
      "換": 2688,
      "握": 2689,
      "揣": 2690,
      "揪": 2691,
      "揭": 2692,
      "援": 2693,
      "揶": 2694,
      "揽": 2695,
      "搀": 2696,
      "搁": 2697,
      "搂": 2698,
      "搅": 2699,
      "搏": 2700,
      "搐": 2701,
      "搓": 2702,
      "搔": 2703,
      "搖": 2704,
      "搜": 2705,
      "搞": 2706,
      "搡": 2707,
      "搪": 2708,
      "搬": 2709,
      "搭": 2710,
      "携": 2711,
      "搽": 2712,
      "摄": 2713,
      "摆": 2714,
      "摇": 2715,
      "摊": 2716,
      "摒": 2717,
      "摔": 2718,
      "摘": 2719,
      "摞": 2720,
      "摧": 2721,
      "摩": 2722,
      "摯": 2723,
      "摸": 2724,
      "摹": 2725,
      "撅": 2726,
      "撇": 2727,
      "撑": 2728,
      "撒": 2729,
      "撕": 2730,
      "撞": 2731,
      "撤": 2732,
      "撩": 2733,
      "撬": 2734,
      "播": 2735,
      "撮": 2736,
      "撰": 2737,
      "撵": 2738,
      "撷": 2739,
      "撸": 2740,
      "撼": 2741,
      "擀": 2742,
      "擁": 2743,
      "擂": 2744,
      "擅": 2745,
      "擇": 2746,
      "擊": 2747,
      "操": 2748,
      "擎": 2749,
      "擒": 2750,
      "擔": 2751,
      "擘": 2752,
      "擞": 2753,
      "擢": 2754,
      "擤": 2755,
      "擦": 2756,
      "擬": 2757,
      "擴": 2758,
      "攀": 2759,
      "攒": 2760,
      "攘": 2761,
      "攝": 2762,
      "攥": 2763,
      "攫": 2764,
      "支": 2765,
      "收": 2766,
      "攸": 2767,
      "改": 2768,
      "攻": 2769,
      "放": 2770,
      "政": 2771,
      "故": 2772,
      "效": 2773,
      "敌": 2774,
      "敏": 2775,
      "救": 2776,
      "敖": 2777,
      "敗": 2778,
      "敘": 2779,
      "教": 2780,
      "敛": 2781,
      "敝": 2782,
      "敞": 2783,
      "敢": 2784,
      "散": 2785,
      "敦": 2786,
      "敬": 2787,
      "数": 2788,
      "敲": 2789,
      "整": 2790,
      "敷": 2791,
      "數": 2792,
      "文": 2793,
      "斋": 2794,
      "斌": 2795,
      "斐": 2796,
      "斑": 2797,
      "斓": 2798,
      "斗": 2799,
      "料": 2800,
      "斛": 2801,
      "斜": 2802,
      "斟": 2803,
      "斡": 2804,
      "斤": 2805,
      "斥": 2806,
      "斧": 2807,
      "斩": 2808,
      "断": 2809,
      "斯": 2810,
      "新": 2811,
      "斷": 2812,
      "方": 2813,
      "於": 2814,
      "施": 2815,
      "旁": 2816,
      "旅": 2817,
      "旋": 2818,
      "旌": 2819,
      "旎": 2820,
      "族": 2821,
      "旖": 2822,
      "旗": 2823,
      "无": 2824,
      "既": 2825,
      "日": 2826,
      "旦": 2827,
      "旧": 2828,
      "旨": 2829,
      "早": 2830,
      "旬": 2831,
      "旭": 2832,
      "旱": 2833,
      "旳": 2834,
      "时": 2835,
      "旷": 2836,
      "旺": 2837,
      "昀": 2838,
      "昂": 2839,
      "昆": 2840,
      "昇": 2841,
      "昉": 2842,
      "昊": 2843,
      "昌": 2844,
      "明": 2845,
      "昏": 2846,
      "昑": 2847,
      "易": 2848,
      "昔": 2849,
      "昕": 2850,
      "昙": 2851,
      "星": 2852,
      "映": 2853,
      "春": 2854,
      "昧": 2855,
      "昨": 2856,
      "昭": 2857,
      "是": 2858,
      "昱": 2859,
      "昵": 2860,
      "昼": 2861,
      "显": 2862,
      "晁": 2863,
      "時": 2864,
      "晃": 2865,
      "晋": 2866,
      "晌": 2867,
      "晏": 2868,
      "晒": 2869,
      "晓": 2870,
      "晕": 2871,
      "晖": 2872,
      "晗": 2873,
      "晚": 2874,
      "晞": 2875,
      "晟": 2876,
      "晤": 2877,
      "晦": 2878,
      "晨": 2879,
      "晩": 2880,
      "普": 2881,
      "景": 2882,
      "晰": 2883,
      "晴": 2884,
      "晶": 2885,
      "晷": 2886,
      "晹": 2887,
      "智": 2888,
      "晾": 2889,
      "暁": 2890,
      "暂": 2891,
      "暄": 2892,
      "暇": 2893,
      "暉": 2894,
      "暑": 2895,
      "暖": 2896,
      "暗": 2897,
      "暝": 2898,
      "暢": 2899,
      "暧": 2900,
      "暨": 2901,
      "暮": 2902,
      "暴": 2903,
      "暹": 2904,
      "曉": 2905,
      "曌": 2906,
      "曙": 2907,
      "曛": 2908,
      "曜": 2909,
      "曝": 2910,
      "曠": 2911,
      "曦": 2912,
      "曬": 2913,
      "曰": 2914,
      "曲": 2915,
      "曳": 2916,
      "更": 2917,
      "書": 2918,
      "曹": 2919,
      "曼": 2920,
      "曾": 2921,
      "替": 2922,
      "最": 2923,
      "會": 2924,
      "月": 2925,
      "有": 2926,
      "朋": 2927,
      "服": 2928,
      "朓": 2929,
      "朔": 2930,
      "朕": 2931,
      "朗": 2932,
      "望": 2933,
      "朝": 2934,
      "期": 2935,
      "朦": 2936,
      "木": 2937,
      "未": 2938,
      "末": 2939,
      "本": 2940,
      "札": 2941,
      "术": 2942,
      "朱": 2943,
      "朴": 2944,
      "朵": 2945,
      "机": 2946,
      "朽": 2947,
      "杀": 2948,
      "杂": 2949,
      "权": 2950,
      "杆": 2951,
      "杈": 2952,
      "杉": 2953,
      "李": 2954,
      "杏": 2955,
      "材": 2956,
      "村": 2957,
      "杓": 2958,
      "杖": 2959,
      "杜": 2960,
      "杞": 2961,
      "束": 2962,
      "杠": 2963,
      "条": 2964,
      "来": 2965,
      "杨": 2966,
      "杭": 2967,
      "杯": 2968,
      "杰": 2969,
      "東": 2970,
      "杳": 2971,
      "杵": 2972,
      "杷": 2973,
      "杼": 2974,
      "松": 2975,
      "板": 2976,
      "极": 2977,
      "构": 2978,
      "枇": 2979,
      "枉": 2980,
      "析": 2981,
      "枕": 2982,
      "林": 2983,
      "枚": 2984,
      "果": 2985,
      "枝": 2986,
      "枞": 2987,
      "枢": 2988,
      "枣": 2989,
      "枪": 2990,
      "枫": 2991,
      "枭": 2992,
      "枯": 2993,
      "架": 2994,
      "枷": 2995,
      "枸": 2996,
      "柄": 2997,
      "柊": 2998,
      "柏": 2999,
      "某": 3000,
      "柑": 3001,
      "柒": 3002,
      "染": 3003,
      "柔": 3004,
      "柚": 3005,
      "柜": 3006,
      "柠": 3007,
      "查": 3008,
      "柬": 3009,
      "柯": 3010,
      "柱": 3011,
      "柳": 3012,
      "柴": 3013,
      "柿": 3014,
      "栀": 3015,
      "栄": 3016,
      "栅": 3017,
      "标": 3018,
      "栈": 3019,
      "栉": 3020,
      "栊": 3021,
      "栋": 3022,
      "栎": 3023,
      "栏": 3024,
      "树": 3025,
      "栓": 3026,
      "栖": 3027,
      "栗": 3028,
      "校": 3029,
      "栩": 3030,
      "株": 3031,
      "样": 3032,
      "核": 3033,
      "根": 3034,
      "格": 3035,
      "栽": 3036,
      "桀": 3037,
      "桁": 3038,
      "桂": 3039,
      "桃": 3040,
      "桅": 3041,
      "框": 3042,
      "案": 3043,
      "桉": 3044,
      "桌": 3045,
      "桎": 3046,
      "桐": 3047,
      "桑": 3048,
      "桓": 3049,
      "桔": 3050,
      "桠": 3051,
      "桡": 3052,
      "档": 3053,
      "桥": 3054,
      "桦": 3055,
      "桧": 3056,
      "桨": 3057,
      "桩": 3058,
      "桶": 3059,
      "梁": 3060,
      "梅": 3061,
      "梆": 3062,
      "梏": 3063,
      "梓": 3064,
      "梗": 3065,
      "條": 3066,
      "梢": 3067,
      "梦": 3068,
      "梧": 3069,
      "梨": 3070,
      "梭": 3071,
      "梯": 3072,
      "械": 3073,
      "梳": 3074,
      "梵": 3075,
      "检": 3076,
      "棂": 3077,
      "棄": 3078,
      "棉": 3079,
      "棋": 3080,
      "棍": 3081,
      "棒": 3082,
      "棕": 3083,
      "棘": 3084,
      "棚": 3085,
      "棠": 3086,
      "棣": 3087,
      "森": 3088,
      "棱": 3089,
      "棲": 3090,
      "棵": 3091,
      "棹": 3092,
      "棺": 3093,
      "椅": 3094,
      "植": 3095,
      "椎": 3096,
      "椒": 3097,
      "椭": 3098,
      "椰": 3099,
      "椴": 3100,
      "椹": 3101,
      "椿": 3102,
      "楂": 3103,
      "楔": 3104,
      "楚": 3105,
      "楞": 3106,
      "楠": 3107,
      "楫": 3108,
      "業": 3109,
      "極": 3110,
      "楷": 3111,
      "楸": 3112,
      "楹": 3113,
      "楼": 3114,
      "楽": 3115,
      "概": 3116,
      "榄": 3117,
      "榆": 3118,
      "榈": 3119,
      "榉": 3120,
      "榊": 3121,
      "榔": 3122,
      "榕": 3123,
      "榛": 3124,
      "榜": 3125,
      "榨": 3126,
      "榫": 3127,
      "榭": 3128,
      "榴": 3129,
      "榻": 3130,
      "槁": 3131,
      "槃": 3132,
      "槌": 3133,
      "槎": 3134,
      "槐": 3135,
      "様": 3136,
      "槛": 3137,
      "槟": 3138,
      "槭": 3139,
      "槽": 3140,
      "樂": 3141,
      "樊": 3142,
      "樓": 3143,
      "標": 3144,
      "樟": 3145,
      "模": 3146,
      "樣": 3147,
      "樨": 3148,
      "横": 3149,
      "樯": 3150,
      "樱": 3151,
      "樵": 3152,
      "樹": 3153,
      "樺": 3154,
      "樽": 3155,
      "樾": 3156,
      "橄": 3157,
      "橇": 3158,
      "橋": 3159,
      "橘": 3160,
      "橙": 3161,
      "機": 3162,
      "橡": 3163,
      "橢": 3164,
      "橥": 3165,
      "橫": 3166,
      "橱": 3167,
      "橹": 3168,
      "檀": 3169,
      "檄": 3170,
      "檎": 3171,
      "檐": 3172,
      "檜": 3173,
      "檝": 3174,
      "檢": 3175,
      "檬": 3176,
      "櫂": 3177,
      "櫻": 3178,
      "欄": 3179,
      "權": 3180,
      "欠": 3181,
      "次": 3182,
      "欢": 3183,
      "欣": 3184,
      "欧": 3185,
      "欲": 3186,
      "欸": 3187,
      "欹": 3188,
      "欺": 3189,
      "款": 3190,
      "歆": 3191,
      "歇": 3192,
      "歉": 3193,
      "歌": 3194,
      "歎": 3195,
      "歐": 3196,
      "歙": 3197,
      "歟": 3198,
      "歡": 3199,
      "止": 3200,
      "正": 3201,
      "此": 3202,
      "步": 3203,
      "武": 3204,
      "歧": 3205,
      "歩": 3206,
      "歪": 3207,
      "歴": 3208,
      "歸": 3209,
      "歹": 3210,
      "死": 3211,
      "殃": 3212,
      "殆": 3213,
      "殇": 3214,
      "殉": 3215,
      "殊": 3216,
      "残": 3217,
      "殓": 3218,
      "殖": 3219,
      "殪": 3220,
      "殳": 3221,
      "殴": 3222,
      "段": 3223,
      "殷": 3224,
      "殿": 3225,
      "毁": 3226,
      "毂": 3227,
      "毅": 3228,
      "毋": 3229,
      "母": 3230,
      "每": 3231,
      "毒": 3232,
      "毓": 3233,
      "比": 3234,
      "毕": 3235,
      "毗": 3236,
      "毙": 3237,
      "毛": 3238,
      "毡": 3239,
      "毫": 3240,
      "毯": 3241,
      "毽": 3242,
      "氏": 3243,
      "民": 3244,
      "氓": 3245,
      "气": 3246,
      "氖": 3247,
      "気": 3248,
      "氘": 3249,
      "氙": 3250,
      "氚": 3251,
      "氛": 3252,
      "氟": 3253,
      "氡": 3254,
      "氢": 3255,
      "氣": 3256,
      "氤": 3257,
      "氦": 3258,
      "氧": 3259,
      "氨": 3260,
      "氩": 3261,
      "氪": 3262,
      "氫": 3263,
      "氬": 3264,
      "氮": 3265,
      "氯": 3266,
      "氰": 3267,
      "氲": 3268,
      "水": 3269,
      "氵": 3270,
      "永": 3271,
      "氽": 3272,
      "汀": 3273,
      "汁": 3274,
      "求": 3275,
      "汆": 3276,
      "汇": 3277,
      "汉": 3278,
      "汐": 3279,
      "汕": 3280,
      "汗": 3281,
      "汛": 3282,
      "汝": 3283,
      "汞": 3284,
      "江": 3285,
      "池": 3286,
      "污": 3287,
      "汤": 3288,
      "汨": 3289,
      "汩": 3290,
      "汪": 3291,
      "汰": 3292,
      "汲": 3293,
      "汶": 3294,
      "汹": 3295,
      "決": 3296,
      "汽": 3297,
      "汾": 3298,
      "沁": 3299,
      "沂": 3300,
      "沃": 3301,
      "沅": 3302,
      "沆": 3303,
      "沈": 3304,
      "沉": 3305,
      "沌": 3306,
      "沏": 3307,
      "沐": 3308,
      "沒": 3309,
      "沓": 3310,
      "沔": 3311,
      "沖": 3312,
      "沙": 3313,
      "沛": 3314,
      "沟": 3315,
      "没": 3316,
      "沢": 3317,
      "沥": 3318,
      "沦": 3319,
      "沧": 3320,
      "沪": 3321,
      "沫": 3322,
      "沮": 3323,
      "沱": 3324,
      "河": 3325,
      "沸": 3326,
      "油": 3327,
      "治": 3328,
      "沼": 3329,
      "沽": 3330,
      "沾": 3331,
      "沿": 3332,
      "況": 3333,
      "泄": 3334,
      "泉": 3335,
      "泊": 3336,
      "泌": 3337,
      "泓": 3338,
      "法": 3339,
      "泖": 3340,
      "泛": 3341,
      "泞": 3342,
      "泠": 3343,
      "泡": 3344,
      "波": 3345,
      "泣": 3346,
      "泥": 3347,
      "注": 3348,
      "泪": 3349,
      "泫": 3350,
      "泮": 3351,
      "泯": 3352,
      "泰": 3353,
      "泱": 3354,
      "泳": 3355,
      "泵": 3356,
      "泷": 3357,
      "泸": 3358,
      "泻": 3359,
      "泼": 3360,
      "泽": 3361,
      "泾": 3362,
      "洁": 3363,
      "洄": 3364,
      "洋": 3365,
      "洌": 3366,
      "洒": 3367,
      "洗": 3368,
      "洛": 3369,
      "洞": 3370,
      "津": 3371,
      "洩": 3372,
      "洪": 3373,
      "洮": 3374,
      "洱": 3375,
      "洲": 3376,
      "活": 3377,
      "洼": 3378,
      "洽": 3379,
      "派": 3380,
      "流": 3381,
      "浃": 3382,
      "浄": 3383,
      "浅": 3384,
      "浆": 3385,
      "浇": 3386,
      "浊": 3387,
      "测": 3388,
      "济": 3389,
      "浏": 3390,
      "浑": 3391,
      "浒": 3392,
      "浓": 3393,
      "浔": 3394,
      "浙": 3395,
      "浚": 3396,
      "浜": 3397,
      "浣": 3398,
      "浦": 3399,
      "浩": 3400,
      "浪": 3401,
      "浮": 3402,
      "浴": 3403,
      "海": 3404,
      "浸": 3405,
      "涂": 3406,
      "涅": 3407,
      "消": 3408,
      "涉": 3409,
      "涌": 3410,
      "涎": 3411,
      "涓": 3412,
      "涔": 3413,
      "涕": 3414,
      "涙": 3415,
      "涛": 3416,
      "涝": 3417,
      "涞": 3418,
      "涟": 3419,
      "涡": 3420,
      "涣": 3421,
      "涤": 3422,
      "润": 3423,
      "涧": 3424,
      "涨": 3425,
      "涩": 3426,
      "涮": 3427,
      "涯": 3428,
      "液": 3429,
      "涵": 3430,
      "涸": 3431,
      "涼": 3432,
      "涿": 3433,
      "淀": 3434,
      "淅": 3435,
      "淆": 3436,
      "淇": 3437,
      "淋": 3438,
      "淌": 3439,
      "淑": 3440,
      "淖": 3441,
      "淘": 3442,
      "淙": 3443,
      "淚": 3444,
      "淝": 3445,
      "淞": 3446,
      "淡": 3447,
      "淤": 3448,
      "淫": 3449,
      "淬": 3450,
      "淮": 3451,
      "深": 3452,
      "淳": 3453,
      "淵": 3454,
      "混": 3455,
      "淹": 3456,
      "淺": 3457,
      "添": 3458,
      "淼": 3459,
      "清": 3460,
      "渊": 3461,
      "渋": 3462,
      "渍": 3463,
      "渎": 3464,
      "渐": 3465,
      "渔": 3466,
      "渗": 3467,
      "渚": 3468,
      "渝": 3469,
      "渠": 3470,
      "渡": 3471,
      "渣": 3472,
      "渤": 3473,
      "渥": 3474,
      "温": 3475,
      "測": 3476,
      "渭": 3477,
      "港": 3478,
      "渲": 3479,
      "渴": 3480,
      "游": 3481,
      "渺": 3482,
      "湃": 3483,
      "湄": 3484,
      "湍": 3485,
      "湎": 3486,
      "湖": 3487,
      "湘": 3488,
      "湛": 3489,
      "湧": 3490,
      "湮": 3491,
      "湯": 3492,
      "湲": 3493,
      "湾": 3494,
      "湿": 3495,
      "溃": 3496,
      "溅": 3497,
      "溆": 3498,
      "溉": 3499,
      "溏": 3500,
      "源": 3501,
      "準": 3502,
      "溜": 3503,
      "溝": 3504,
      "溟": 3505,
      "溢": 3506,
      "溥": 3507,
      "溪": 3508,
      "溫": 3509,
      "溯": 3510,
      "溴": 3511,
      "溶": 3512,
      "溺": 3513,
      "滁": 3514,
      "滂": 3515,
      "滄": 3516,
      "滅": 3517,
      "滇": 3518,
      "滋": 3519,
      "滑": 3520,
      "滓": 3521,
      "滔": 3522,
      "滕": 3523,
      "滗": 3524,
      "滚": 3525,
      "滝": 3526,
      "滞": 3527,
      "滟": 3528,
      "满": 3529,
      "滢": 3530,
      "滤": 3531,
      "滥": 3532,
      "滨": 3533,
      "滩": 3534,
      "滴": 3535,
      "滹": 3536,
      "滿": 3537,
      "漂": 3538,
      "漆": 3539,
      "漉": 3540,
      "漏": 3541,
      "漓": 3542,
      "演": 3543,
      "漕": 3544,
      "漠": 3545,
      "漢": 3546,
      "漩": 3547,
      "漪": 3548,
      "漫": 3549,
      "漬": 3550,
      "漱": 3551,
      "漳": 3552,
      "漸": 3553,
      "漾": 3554,
      "漿": 3555,
      "潇": 3556,
      "潋": 3557,
      "潍": 3558,
      "潑": 3559,
      "潔": 3560,
      "潘": 3561,
      "潛": 3562,
      "潜": 3563,
      "潞": 3564,
      "潟": 3565,
      "潢": 3566,
      "潤": 3567,
      "潦": 3568,
      "潭": 3569,
      "潮": 3570,
      "潴": 3571,
      "潸": 3572,
      "潺": 3573,
      "潼": 3574,
      "澀": 3575,
      "澄": 3576,
      "澈": 3577,
      "澎": 3578,
      "澜": 3579,
      "澡": 3580,
      "澥": 3581,
      "澦": 3582,
      "澧": 3583,
      "澱": 3584,
      "澳": 3585,
      "澹": 3586,
      "激": 3587,
      "濃": 3588,
      "濑": 3589,
      "濒": 3590,
      "濕": 3591,
      "濛": 3592,
      "濟": 3593,
      "濠": 3594,
      "濡": 3595,
      "濮": 3596,
      "濾": 3597,
      "瀑": 3598,
      "瀚": 3599,
      "瀛": 3600,
      "瀣": 3601,
      "瀧": 3602,
      "瀬": 3603,
      "瀰": 3604,
      "瀷": 3605,
      "灌": 3606,
      "灑": 3607,
      "灘": 3608,
      "灣": 3609,
      "火": 3610,
      "灬": 3611,
      "灭": 3612,
      "灯": 3613,
      "灰": 3614,
      "灵": 3615,
      "灶": 3616,
      "灸": 3617,
      "灼": 3618,
      "灾": 3619,
      "灿": 3620,
      "炅": 3621,
      "炆": 3622,
      "炉": 3623,
      "炊": 3624,
      "炎": 3625,
      "炒": 3626,
      "炔": 3627,
      "炕": 3628,
      "炖": 3629,
      "炙": 3630,
      "炜": 3631,
      "炝": 3632,
      "炫": 3633,
      "炬": 3634,
      "炭": 3635,
      "炮": 3636,
      "炯": 3637,
      "炳": 3638,
      "炸": 3639,
      "点": 3640,
      "為": 3641,
      "炼": 3642,
      "炽": 3643,
      "烁": 3644,
      "烂": 3645,
      "烃": 3646,
      "烈": 3647,
      "烊": 3648,
      "烘": 3649,
      "烙": 3650,
      "烛": 3651,
      "烟": 3652,
      "烤": 3653,
      "烦": 3654,
      "烧": 3655,
      "烩": 3656,
      "烫": 3657,
      "烬": 3658,
      "热": 3659,
      "烯": 3660,
      "烷": 3661,
      "烹": 3662,
      "烽": 3663,
      "焉": 3664,
      "焊": 3665,
      "焐": 3666,
      "焓": 3667,
      "焕": 3668,
      "焖": 3669,
      "焗": 3670,
      "焙": 3671,
      "焚": 3672,
      "無": 3673,
      "焦": 3674,
      "焯": 3675,
      "焰": 3676,
      "然": 3677,
      "焼": 3678,
      "煊": 3679,
      "煌": 3680,
      "煎": 3681,
      "煐": 3682,
      "煙": 3683,
      "煜": 3684,
      "煞": 3685,
      "煤": 3686,
      "煦": 3687,
      "照": 3688,
      "煨": 3689,
      "煮": 3690,
      "煰": 3691,
      "煲": 3692,
      "煸": 3693,
      "煽": 3694,
      "熄": 3695,
      "熊": 3696,
      "熏": 3697,
      "熔": 3698,
      "熘": 3699,
      "熙": 3700,
      "熟": 3701,
      "熠": 3702,
      "熨": 3703,
      "熬": 3704,
      "熱": 3705,
      "熳": 3706,
      "熵": 3707,
      "熹": 3708,
      "燃": 3709,
      "燉": 3710,
      "燎": 3711,
      "燒": 3712,
      "燕": 3713,
      "燚": 3714,
      "營": 3715,
      "燠": 3716,
      "燥": 3717,
      "燧": 3718,
      "燮": 3719,
      "燴": 3720,
      "燻": 3721,
      "爆": 3722,
      "爪": 3723,
      "爫": 3724,
      "爬": 3725,
      "爭": 3726,
      "爱": 3727,
      "爵": 3728,
      "父": 3729,
      "爷": 3730,
      "爸": 3731,
      "爹": 3732,
      "爽": 3733,
      "爾": 3734,
      "牀": 3735,
      "牆": 3736,
      "片": 3737,
      "版": 3738,
      "牌": 3739,
      "牍": 3740,
      "牒": 3741,
      "牙": 3742,
      "牛": 3743,
      "牟": 3744,
      "牠": 3745,
      "牡": 3746,
      "牢": 3747,
      "牦": 3748,
      "牧": 3749,
      "物": 3750,
      "牲": 3751,
      "牵": 3752,
      "特": 3753,
      "牺": 3754,
      "牽": 3755,
      "犀": 3756,
      "犁": 3757,
      "犄": 3758,
      "犇": 3759,
      "犊": 3760,
      "犒": 3761,
      "犟": 3762,
      "犬": 3763,
      "犭": 3764,
      "犯": 3765,
      "犰": 3766,
      "状": 3767,
      "犷": 3768,
      "犸": 3769,
      "犹": 3770,
      "狀": 3771,
      "狂": 3772,
      "狄": 3773,
      "狈": 3774,
      "狍": 3775,
      "狐": 3776,
      "狒": 3777,
      "狗": 3778,
      "狙": 3779,
      "狞": 3780,
      "狠": 3781,
      "狡": 3782,
      "狩": 3783,
      "独": 3784,
      "狭": 3785,
      "狮": 3786,
      "狰": 3787,
      "狱": 3788,
      "狲": 3789,
      "狳": 3790,
      "狸": 3791,
      "狼": 3792,
      "猁": 3793,
      "猇": 3794,
      "猎": 3795,
      "猕": 3796,
      "猖": 3797,
      "猛": 3798,
      "猜": 3799,
      "猝": 3800,
      "猞": 3801,
      "猢": 3802,
      "猥": 3803,
      "猨": 3804,
      "猩": 3805,
      "猪": 3806,
      "猫": 3807,
      "猬": 3808,
      "献": 3809,
      "猴": 3810,
      "猷": 3811,
      "猾": 3812,
      "猿": 3813,
      "獎": 3814,
      "獐": 3815,
      "獒": 3816,
      "獗": 3817,
      "獠": 3818,
      "獨": 3819,
      "獭": 3820,
      "獲": 3821,
      "獵": 3822,
      "獾": 3823,
      "玄": 3824,
      "率": 3825,
      "玉": 3826,
      "王": 3827,
      "玑": 3828,
      "玖": 3829,
      "玛": 3830,
      "玟": 3831,
      "玠": 3832,
      "玩": 3833,
      "玫": 3834,
      "环": 3835,
      "现": 3836,
      "玲": 3837,
      "玳": 3838,
      "玺": 3839,
      "玻": 3840,
      "珀": 3841,
      "珂": 3842,
      "珈": 3843,
      "珉": 3844,
      "珊": 3845,
      "珍": 3846,
      "珐": 3847,
      "珑": 3848,
      "珙": 3849,
      "珝": 3850,
      "珞": 3851,
      "珠": 3852,
      "珩": 3853,
      "班": 3854,
      "珮": 3855,
      "現": 3856,
      "球": 3857,
      "琅": 3858,
      "理": 3859,
      "琉": 3860,
      "琊": 3861,
      "琏": 3862,
      "琐": 3863,
      "琛": 3864,
      "琢": 3865,
      "琥": 3866,
      "琦": 3867,
      "琪": 3868,
      "琰": 3869,
      "琲": 3870,
      "琳": 3871,
      "琴": 3872,
      "琵": 3873,
      "琶": 3874,
      "琼": 3875,
      "瑁": 3876,
      "瑄": 3877,
      "瑕": 3878,
      "瑙": 3879,
      "瑚": 3880,
      "瑛": 3881,
      "瑜": 3882,
      "瑞": 3883,
      "瑟": 3884,
      "瑠": 3885,
      "瑪": 3886,
      "瑰": 3887,
      "瑶": 3888,
      "瑾": 3889,
      "璀": 3890,
      "璃": 3891,
      "璇": 3892,
      "璋": 3893,
      "璎": 3894,
      "璐": 3895,
      "璜": 3896,
      "璞": 3897,
      "璧": 3898,
      "璨": 3899,
      "環": 3900,
      "瓜": 3901,
      "瓢": 3902,
      "瓣": 3903,
      "瓤": 3904,
      "瓦": 3905,
      "瓮": 3906,
      "瓶": 3907,
      "瓷": 3908,
      "甄": 3909,
      "甘": 3910,
      "甚": 3911,
      "甜": 3912,
      "生": 3913,
      "産": 3914,
      "甥": 3915,
      "用": 3916,
      "甩": 3917,
      "甫": 3918,
      "甯": 3919,
      "田": 3920,
      "由": 3921,
      "甲": 3922,
      "申": 3923,
      "电": 3924,
      "男": 3925,
      "甸": 3926,
      "町": 3927,
      "画": 3928,
      "甾": 3929,
      "畅": 3930,
      "界": 3931,
      "畏": 3932,
      "畔": 3933,
      "留": 3934,
      "畜": 3935,
      "略": 3936,
      "畦": 3937,
      "番": 3938,
      "畫": 3939,
      "異": 3940,
      "畴": 3941,
      "當": 3942,
      "畸": 3943,
      "疆": 3944,
      "疏": 3945,
      "疑": 3946,
      "疖": 3947,
      "疗": 3948,
      "疙": 3949,
      "疚": 3950,
      "疟": 3951,
      "疡": 3952,
      "疣": 3953,
      "疤": 3954,
      "疥": 3955,
      "疫": 3956,
      "疮": 3957,
      "疯": 3958,
      "疱": 3959,
      "疲": 3960,
      "疵": 3961,
      "疸": 3962,
      "疹": 3963,
      "疼": 3964,
      "疽": 3965,
      "疾": 3966,
      "病": 3967,
      "症": 3968,
      "痈": 3969,
      "痉": 3970,
      "痊": 3971,
      "痍": 3972,
      "痒": 3973,
      "痕": 3974,
      "痘": 3975,
      "痛": 3976,
      "痢": 3977,
      "痤": 3978,
      "痪": 3979,
      "痫": 3980,
      "痰": 3981,
      "痲": 3982,
      "痴": 3983,
      "痹": 3984,
      "瘀": 3985,
      "瘁": 3986,
      "瘆": 3987,
      "瘋": 3988,
      "瘗": 3989,
      "瘙": 3990,
      "瘞": 3991,
      "瘟": 3992,
      "瘠": 3993,
      "瘤": 3994,
      "瘦": 3995,
      "瘩": 3996,
      "瘪": 3997,
      "瘫": 3998,
      "瘴": 3999,
      "瘾": 4000,
      "癀": 4001,
      "癌": 4002,
      "癖": 4003,
      "癫": 4004,
      "癸": 4005,
      "登": 4006,
      "發": 4007,
      "白": 4008,
      "百": 4009,
      "皂": 4010,
      "的": 4011,
      "皆": 4012,
      "皇": 4013,
      "皋": 4014,
      "皎": 4015,
      "皑": 4016,
      "皓": 4017,
      "皖": 4018,
      "皙": 4019,
      "皮": 4020,
      "皱": 4021,
      "皿": 4022,
      "盂": 4023,
      "盅": 4024,
      "盆": 4025,
      "盈": 4026,
      "益": 4027,
      "盎": 4028,
      "盏": 4029,
      "盐": 4030,
      "监": 4031,
      "盒": 4032,
      "盔": 4033,
      "盖": 4034,
      "盗": 4035,
      "盘": 4036,
      "盛": 4037,
      "盟": 4038,
      "盡": 4039,
      "監": 4040,
      "盥": 4041,
      "盪": 4042,
      "目": 4043,
      "盯": 4044,
      "盲": 4045,
      "直": 4046,
      "相": 4047,
      "盹": 4048,
      "盼": 4049,
      "盾": 4050,
      "省": 4051,
      "眄": 4052,
      "眈": 4053,
      "眉": 4054,
      "看": 4055,
      "真": 4056,
      "眠": 4057,
      "眦": 4058,
      "眨": 4059,
      "眩": 4060,
      "眯": 4061,
      "眶": 4062,
      "眷": 4063,
      "眸": 4064,
      "眺": 4065,
      "眼": 4066,
      "眾": 4067,
      "着": 4068,
      "睁": 4069,
      "睐": 4070,
      "睑": 4071,
      "睛": 4072,
      "睡": 4073,
      "督": 4074,
      "睥": 4075,
      "睦": 4076,
      "睨": 4077,
      "睫": 4078,
      "睬": 4079,
      "睹": 4080,
      "睽": 4081,
      "睾": 4082,
      "睿": 4083,
      "瞄": 4084,
      "瞅": 4085,
      "瞌": 4086,
      "瞎": 4087,
      "瞒": 4088,
      "瞟": 4089,
      "瞠": 4090,
      "瞥": 4091,
      "瞧": 4092,
      "瞩": 4093,
      "瞪": 4094,
      "瞬": 4095,
      "瞭": 4096,
      "瞰": 4097,
      "瞳": 4098,
      "瞻": 4099,
      "瞼": 4100,
      "瞿": 4101,
      "矍": 4102,
      "矗": 4103,
      "矛": 4104,
      "矜": 4105,
      "矢": 4106,
      "矣": 4107,
      "知": 4108,
      "矩": 4109,
      "矫": 4110,
      "短": 4111,
      "矮": 4112,
      "石": 4113,
      "矶": 4114,
      "矽": 4115,
      "矿": 4116,
      "码": 4117,
      "砂": 4118,
      "砉": 4119,
      "砌": 4120,
      "砍": 4121,
      "研": 4122,
      "砖": 4123,
      "砚": 4124,
      "砜": 4125,
      "砝": 4126,
      "砥": 4127,
      "砧": 4128,
      "砭": 4129,
      "砰": 4130,
      "砲": 4131,
      "破": 4132,
      "砷": 4133,
      "砸": 4134,
      "砺": 4135,
      "砾": 4136,
      "础": 4137,
      "硅": 4138,
      "硒": 4139,
      "硕": 4140,
      "硖": 4141,
      "硝": 4142,
      "硫": 4143,
      "硬": 4144,
      "确": 4145,
      "硼": 4146,
      "碇": 4147,
      "碉": 4148,
      "碌": 4149,
      "碍": 4150,
      "碎": 4151,
      "碑": 4152,
      "碗": 4153,
      "碘": 4154,
      "碛": 4155,
      "碜": 4156,
      "碟": 4157,
      "碧": 4158,
      "碰": 4159,
      "碱": 4160,
      "碳": 4161,
      "確": 4162,
      "碾": 4163,
      "磁": 4164,
      "磅": 4165,
      "磊": 4166,
      "磋": 4167,
      "磐": 4168,
      "磕": 4169,
      "磨": 4170,
      "磯": 4171,
      "磷": 4172,
      "磺": 4173,
      "礁": 4174,
      "礎": 4175,
      "礙": 4176,
      "礴": 4177,
      "示": 4178,
      "礼": 4179,
      "社": 4180,
      "祀": 4181,
      "祁": 4182,
      "祂": 4183,
      "祆": 4184,
      "祇": 4185,
      "祈": 4186,
      "祉": 4187,
      "祎": 4188,
      "祐": 4189,
      "祖": 4190,
      "祗": 4191,
      "祛": 4192,
      "祜": 4193,
      "祝": 4194,
      "神": 4195,
      "祟": 4196,
      "祠": 4197,
      "祥": 4198,
      "票": 4199,
      "祭": 4200,
      "祯": 4201,
      "祷": 4202,
      "祸": 4203,
      "祹": 4204,
      "祺": 4205,
      "祿": 4206,
      "禀": 4207,
      "禁": 4208,
      "禄": 4209,
      "禅": 4210,
      "禌": 4211,
      "禎": 4212,
      "福": 4213,
      "禔": 4214,
      "禛": 4215,
      "禟": 4216,
      "禧": 4217,
      "禩": 4218,
      "禮": 4219,
      "禵": 4220,
      "禹": 4221,
      "禺": 4222,
      "离": 4223,
      "禽": 4224,
      "禾": 4225,
      "秀": 4226,
      "私": 4227,
      "秃": 4228,
      "秆": 4229,
      "秉": 4230,
      "秋": 4231,
      "种": 4232,
      "科": 4233,
      "秒": 4234,
      "秘": 4235,
      "租": 4236,
      "秣": 4237,
      "秤": 4238,
      "秦": 4239,
      "秧": 4240,
      "秩": 4241,
      "秭": 4242,
      "积": 4243,
      "称": 4244,
      "秸": 4245,
      "移": 4246,
      "秽": 4247,
      "秾": 4248,
      "稀": 4249,
      "程": 4250,
      "稍": 4251,
      "税": 4252,
      "稔": 4253,
      "稚": 4254,
      "稞": 4255,
      "稠": 4256,
      "種": 4257,
      "稱": 4258,
      "稳": 4259,
      "稷": 4260,
      "稹": 4261,
      "稻": 4262,
      "稼": 4263,
      "稽": 4264,
      "稿": 4265,
      "穆": 4266,
      "積": 4267,
      "穎": 4268,
      "穗": 4269,
      "穩": 4270,
      "穴": 4271,
      "究": 4272,
      "穷": 4273,
      "穹": 4274,
      "空": 4275,
      "穿": 4276,
      "突": 4277,
      "窃": 4278,
      "窄": 4279,
      "窈": 4280,
      "窍": 4281,
      "窑": 4282,
      "窒": 4283,
      "窕": 4284,
      "窖": 4285,
      "窗": 4286,
      "窘": 4287,
      "窜": 4288,
      "窝": 4289,
      "窟": 4290,
      "窠": 4291,
      "窣": 4292,
      "窥": 4293,
      "窦": 4294,
      "窨": 4295,
      "窮": 4296,
      "窸": 4297,
      "立": 4298,
      "竖": 4299,
      "站": 4300,
      "竞": 4301,
      "竟": 4302,
      "章": 4303,
      "竣": 4304,
      "童": 4305,
      "竭": 4306,
      "端": 4307,
      "競": 4308,
      "竹": 4309,
      "竺": 4310,
      "竽": 4311,
      "竿": 4312,
      "笃": 4313,
      "笆": 4314,
      "笈": 4315,
      "笋": 4316,
      "笑": 4317,
      "笔": 4318,
      "笙": 4319,
      "笛": 4320,
      "笠": 4321,
      "笤": 4322,
      "符": 4323,
      "笨": 4324,
      "第": 4325,
      "笳": 4326,
      "笺": 4327,
      "笼": 4328,
      "筆": 4329,
      "等": 4330,
      "筋": 4331,
      "筍": 4332,
      "筏": 4333,
      "筐": 4334,
      "筑": 4335,
      "筒": 4336,
      "答": 4337,
      "策": 4338,
      "筛": 4339,
      "筝": 4340,
      "筠": 4341,
      "筱": 4342,
      "筵": 4343,
      "筷": 4344,
      "筹": 4345,
      "签": 4346,
      "简": 4347,
      "箍": 4348,
      "箏": 4349,
      "箔": 4350,
      "箕": 4351,
      "算": 4352,
      "箜": 4353,
      "管": 4354,
      "箩": 4355,
      "箫": 4356,
      "箬": 4357,
      "箭": 4358,
      "箱": 4359,
      "箴": 4360,
      "箸": 4361,
      "節": 4362,
      "篁": 4363,
      "範": 4364,
      "篆": 4365,
      "篇": 4366,
      "築": 4367,
      "篌": 4368,
      "篑": 4369,
      "篓": 4370,
      "篙": 4371,
      "篝": 4372,
      "篡": 4373,
      "篮": 4374,
      "篱": 4375,
      "篷": 4376,
      "篾": 4377,
      "簇": 4378,
      "簋": 4379,
      "簌": 4380,
      "簡": 4381,
      "簧": 4382,
      "簪": 4383,
      "簫": 4384,
      "簷": 4385,
      "簸": 4386,
      "簿": 4387,
      "籁": 4388,
      "籃": 4389,
      "籌": 4390,
      "籍": 4391,
      "籠": 4392,
      "米": 4393,
      "类": 4394,
      "籽": 4395,
      "粉": 4396,
      "粑": 4397,
      "粒": 4398,
      "粗": 4399,
      "粘": 4400,
      "粟": 4401,
      "粢": 4402,
      "粤": 4403,
      "粥": 4404,
      "粪": 4405,
      "粮": 4406,
      "粱": 4407,
      "粹": 4408,
      "粼": 4409,
      "粽": 4410,
      "精": 4411,
      "粿": 4412,
      "糅": 4413,
      "糊": 4414,
      "糍": 4415,
      "糕": 4416,
      "糖": 4417,
      "糗": 4418,
      "糙": 4419,
      "糜": 4420,
      "糟": 4421,
      "糠": 4422,
      "糨": 4423,
      "糯": 4424,
      "糰": 4425,
      "系": 4426,
      "紀": 4427,
      "約": 4428,
      "紅": 4429,
      "紊": 4430,
      "紋": 4431,
      "納": 4432,
      "紐": 4433,
      "純": 4434,
      "素": 4435,
      "索": 4436,
      "紧": 4437,
      "紫": 4438,
      "累": 4439,
      "細": 4440,
      "紹": 4441,
      "終": 4442,
      "組": 4443,
      "結": 4444,
      "給": 4445,
      "絮": 4446,
      "統": 4447,
      "絲": 4448,
      "絵": 4449,
      "絶": 4450,
      "經": 4451,
      "続": 4452,
      "綠": 4453,
      "綢": 4454,
      "綦": 4455,
      "維": 4456,
      "綰": 4457,
      "綱": 4458,
      "網": 4459,
      "綻": 4460,
      "緊": 4461,
      "緋": 4462,
      "緒": 4463,
      "線": 4464,
      "編": 4465,
      "緩": 4466,
      "練": 4467,
      "縈": 4468,
      "縢": 4469,
      "縣": 4470,
      "縱": 4471,
      "縷": 4472,
      "繁": 4473,
      "織": 4474,
      "繞": 4475,
      "繽": 4476,
      "纂": 4477,
      "纠": 4478,
      "红": 4479,
      "纤": 4480,
      "约": 4481,
      "级": 4482,
      "纨": 4483,
      "纪": 4484,
      "纫": 4485,
      "纬": 4486,
      "纭": 4487,
      "纯": 4488,
      "纰": 4489,
      "纱": 4490,
      "纲": 4491,
      "纳": 4492,
      "纵": 4493,
      "纶": 4494,
      "纷": 4495,
      "纸": 4496,
      "纹": 4497,
      "纺": 4498,
      "纽": 4499,
      "纾": 4500,
      "线": 4501,
      "绀": 4502,
      "绁": 4503,
      "练": 4504,
      "组": 4505,
      "绅": 4506,
      "细": 4507,
      "织": 4508,
      "终": 4509,
      "绊": 4510,
      "绌": 4511,
      "绍": 4512,
      "绎": 4513,
      "经": 4514,
      "绑": 4515,
      "绒": 4516,
      "结": 4517,
      "绕": 4518,
      "绘": 4519,
      "给": 4520,
      "绚": 4521,
      "绛": 4522,
      "络": 4523,
      "绝": 4524,
      "绞": 4525,
      "统": 4526,
      "绡": 4527,
      "绢": 4528,
      "绣": 4529,
      "绦": 4530,
      "继": 4531,
      "绩": 4532,
      "绪": 4533,
      "绫": 4534,
      "续": 4535,
      "绮": 4536,
      "绯": 4537,
      "绰": 4538,
      "绳": 4539,
      "维": 4540,
      "绵": 4541,
      "绶": 4542,
      "绷": 4543,
      "绸": 4544,
      "绻": 4545,
      "综": 4546,
      "绽": 4547,
      "绿": 4548,
      "缀": 4549,
      "缄": 4550,
      "缅": 4551,
      "缆": 4552,
      "缇": 4553,
      "缈": 4554,
      "缉": 4555,
      "缎": 4556,
      "缓": 4557,
      "缔": 4558,
      "缕": 4559,
      "编": 4560,
      "缘": 4561,
      "缚": 4562,
      "缜": 4563,
      "缝": 4564,
      "缠": 4565,
      "缤": 4566,
      "缥": 4567,
      "缦": 4568,
      "缨": 4569,
      "缩": 4570,
      "缪": 4571,
      "缬": 4572,
      "缭": 4573,
      "缮": 4574,
      "缰": 4575,
      "缱": 4576,
      "缴": 4577,
      "缸": 4578,
      "缺": 4579,
      "罄": 4580,
      "罐": 4581,
      "网": 4582,
      "罔": 4583,
      "罕": 4584,
      "罗": 4585,
      "罚": 4586,
      "罡": 4587,
      "罢": 4588,
      "罥": 4589,
      "罩": 4590,
      "罪": 4591,
      "置": 4592,
      "署": 4593,
      "罹": 4594,
      "羁": 4595,
      "羅": 4596,
      "羊": 4597,
      "羌": 4598,
      "美": 4599,
      "羔": 4600,
      "羚": 4601,
      "羞": 4602,
      "羟": 4603,
      "羡": 4604,
      "群": 4605,
      "羧": 4606,
      "義": 4607,
      "羯": 4608,
      "羰": 4609,
      "羲": 4610,
      "羶": 4611,
      "羹": 4612,
      "羽": 4613,
      "羿": 4614,
      "翁": 4615,
      "翅": 4616,
      "翊": 4617,
      "翌": 4618,
      "翎": 4619,
      "習": 4620,
      "翔": 4621,
      "翕": 4622,
      "翘": 4623,
      "翟": 4624,
      "翠": 4625,
      "翡": 4626,
      "翥": 4627,
      "翦": 4628,
      "翩": 4629,
      "翫": 4630,
      "翮": 4631,
      "翰": 4632,
      "翱": 4633,
      "翳": 4634,
      "翻": 4635,
      "翼": 4636,
      "耀": 4637,
      "老": 4638,
      "考": 4639,
      "者": 4640,
      "耆": 4641,
      "而": 4642,
      "耍": 4643,
      "耐": 4644,
      "耕": 4645,
      "耗": 4646,
      "耘": 4647,
      "耙": 4648,
      "耦": 4649,
      "耳": 4650,
      "耶": 4651,
      "耷": 4652,
      "耸": 4653,
      "耻": 4654,
      "耽": 4655,
      "耿": 4656,
      "聂": 4657,
      "聆": 4658,
      "聊": 4659,
      "聋": 4660,
      "职": 4661,
      "聒": 4662,
      "联": 4663,
      "聖": 4664,
      "聘": 4665,
      "聚": 4666,
      "聞": 4667,
      "聩": 4668,
      "聪": 4669,
      "聯": 4670,
      "聲": 4671,
      "聴": 4672,
      "聽": 4673,
      "聿": 4674,
      "肃": 4675,
      "肄": 4676,
      "肆": 4677,
      "肇": 4678,
      "肉": 4679,
      "肋": 4680,
      "肌": 4681,
      "肖": 4682,
      "肘": 4683,
      "肚": 4684,
      "肝": 4685,
      "肠": 4686,
      "股": 4687,
      "肢": 4688,
      "肤": 4689,
      "肥": 4690,
      "肩": 4691,
      "肪": 4692,
      "肮": 4693,
      "肯": 4694,
      "肱": 4695,
      "育": 4696,
      "肴": 4697,
      "肺": 4698,
      "肼": 4699,
      "肽": 4700,
      "肾": 4701,
      "肿": 4702,
      "胀": 4703,
      "胁": 4704,
      "胃": 4705,
      "胄": 4706,
      "胆": 4707,
      "背": 4708,
      "胍": 4709,
      "胎": 4710,
      "胖": 4711,
      "胗": 4712,
      "胚": 4713,
      "胛": 4714,
      "胜": 4715,
      "胞": 4716,
      "胡": 4717,
      "胤": 4718,
      "胥": 4719,
      "胧": 4720,
      "胫": 4721,
      "胭": 4722,
      "胯": 4723,
      "胰": 4724,
      "胱": 4725,
      "胳": 4726,
      "胶": 4727,
      "胸": 4728,
      "胺": 4729,
      "能": 4730,
      "脁": 4731,
      "脂": 4732,
      "脆": 4733,
      "脈": 4734,
      "脉": 4735,
      "脊": 4736,
      "脍": 4737,
      "脏": 4738,
      "脐": 4739,
      "脑": 4740,
      "脒": 4741,
      "脖": 4742,
      "脚": 4743,
      "脫": 4744,
      "脯": 4745,
      "脱": 4746,
      "脲": 4747,
      "脸": 4748,
      "脾": 4749,
      "腆": 4750,
      "腊": 4751,
      "腋": 4752,
      "腌": 4753,
      "腎": 4754,
      "腐": 4755,
      "腑": 4756,
      "腔": 4757,
      "腕": 4758,
      "腥": 4759,
      "腧": 4760,
      "腩": 4761,
      "腭": 4762,
      "腮": 4763,
      "腰": 4764,
      "腱": 4765,
      "腳": 4766,
      "腴": 4767,
      "腸": 4768,
      "腹": 4769,
      "腺": 4770,
      "腻": 4771,
      "腼": 4772,
      "腾": 4773,
      "腿": 4774,
      "膀": 4775,
      "膂": 4776,
      "膈": 4777,
      "膊": 4778,
      "膏": 4779,
      "膚": 4780,
      "膛": 4781,
      "膜": 4782,
      "膝": 4783,
      "膨": 4784,
      "膩": 4785,
      "膳": 4786,
      "膺": 4787,
      "膻": 4788,
      "臀": 4789,
      "臂": 4790,
      "臃": 4791,
      "臆": 4792,
      "臉": 4793,
      "臊": 4794,
      "臘": 4795,
      "臣": 4796,
      "臥": 4797,
      "臧": 4798,
      "臨": 4799,
      "自": 4800,
      "臬": 4801,
      "臭": 4802,
      "至": 4803,
      "致": 4804,
      "臺": 4805,
      "臻": 4806,
      "臼": 4807,
      "臾": 4808,
      "舀": 4809,
      "舂": 4810,
      "舅": 4811,
      "舆": 4812,
      "與": 4813,
      "興": 4814,
      "舉": 4815,
      "舌": 4816,
      "舍": 4817,
      "舐": 4818,
      "舒": 4819,
      "舔": 4820,
      "舛": 4821,
      "舜": 4822,
      "舞": 4823,
      "舟": 4824,
      "舢": 4825,
      "舣": 4826,
      "舨": 4827,
      "航": 4828,
      "舫": 4829,
      "般": 4830,
      "舰": 4831,
      "舱": 4832,
      "舵": 4833,
      "舶": 4834,
      "舷": 4835,
      "舸": 4836,
      "船": 4837,
      "艇": 4838,
      "艘": 4839,
      "艮": 4840,
      "良": 4841,
      "艰": 4842,
      "色": 4843,
      "艳": 4844,
      "艺": 4845,
      "艽": 4846,
      "艾": 4847,
      "艿": 4848,
      "节": 4849,
      "芈": 4850,
      "芊": 4851,
      "芋": 4852,
      "芍": 4853,
      "芎": 4854,
      "芒": 4855,
      "芘": 4856,
      "芙": 4857,
      "芜": 4858,
      "芝": 4859,
      "芡": 4860,
      "芥": 4861,
      "芦": 4862,
      "芩": 4863,
      "芪": 4864,
      "芫": 4865,
      "芬": 4866,
      "芭": 4867,
      "芮": 4868,
      "芯": 4869,
      "芰": 4870,
      "花": 4871,
      "芳": 4872,
      "芴": 4873,
      "芷": 4874,
      "芸": 4875,
      "芹": 4876,
      "芻": 4877,
      "芼": 4878,
      "芽": 4879,
      "芾": 4880,
      "苆": 4881,
      "苇": 4882,
      "苋": 4883,
      "苍": 4884,
      "苏": 4885,
      "苑": 4886,
      "苒": 4887,
      "苓": 4888,
      "苔": 4889,
      "苕": 4890,
      "苗": 4891,
      "苛": 4892,
      "苜": 4893,
      "苞": 4894,
      "苟": 4895,
      "苡": 4896,
      "苣": 4897,
      "若": 4898,
      "苦": 4899,
      "苯": 4900,
      "英": 4901,
      "苷": 4902,
      "苹": 4903,
      "茁": 4904,
      "茂": 4905,
      "范": 4906,
      "茄": 4907,
      "茅": 4908,
      "茉": 4909,
      "茎": 4910,
      "茏": 4911,
      "茗": 4912,
      "茛": 4913,
      "茜": 4914,
      "茧": 4915,
      "茨": 4916,
      "茫": 4917,
      "茬": 4918,
      "茭": 4919,
      "茯": 4920,
      "茱": 4921,
      "茲": 4922,
      "茴": 4923,
      "茵": 4924,
      "茶": 4925,
      "茸": 4926,
      "茹": 4927,
      "茺": 4928,
      "茼": 4929,
      "荀": 4930,
      "荃": 4931,
      "荆": 4932,
      "荇": 4933,
      "草": 4934,
      "荏": 4935,
      "荐": 4936,
      "荑": 4937,
      "荒": 4938,
      "荔": 4939,
      "荘": 4940,
      "荚": 4941,
      "荞": 4942,
      "荟": 4943,
      "荠": 4944,
      "荡": 4945,
      "荣": 4946,
      "荤": 4947,
      "荥": 4948,
      "荧": 4949,
      "荨": 4950,
      "荪": 4951,
      "荫": 4952,
      "荬": 4953,
      "药": 4954,
      "荷": 4955,
      "荸": 4956,
      "荻": 4957,
      "荼": 4958,
      "荽": 4959,
      "莉": 4960,
      "莎": 4961,
      "莒": 4962,
      "莓": 4963,
      "莖": 4964,
      "莜": 4965,
      "莞": 4966,
      "莪": 4967,
      "莫": 4968,
      "莱": 4969,
      "莲": 4970,
      "莳": 4971,
      "莴": 4972,
      "获": 4973,
      "莹": 4974,
      "莺": 4975,
      "莼": 4976,
      "莽": 4977,
      "菀": 4978,
      "菁": 4979,
      "菅": 4980,
      "菇": 4981,
      "菊": 4982,
      "菌": 4983,
      "菓": 4984,
      "菖": 4985,
      "菜": 4986,
      "菠": 4987,
      "菩": 4988,
      "華": 4989,
      "菱": 4990,
      "菲": 4991,
      "菸": 4992,
      "菽": 4993,
      "萃": 4994,
      "萄": 4995,
      "萊": 4996,
      "萋": 4997,
      "萌": 4998,
      "萍": 4999,
      "萎": 5000,
      "萘": 5001,
      "萜": 5002,
      "萝": 5003,
      "萤": 5004,
      "营": 5005,
      "萦": 5006,
      "萧": 5007,
      "萨": 5008,
      "萬": 5009,
      "萱": 5010,
      "萸": 5011,
      "萼": 5012,
      "落": 5013,
      "葆": 5014,
      "葉": 5015,
      "著": 5016,
      "葙": 5017,
      "葚": 5018,
      "葛": 5019,
      "葡": 5020,
      "董": 5021,
      "葫": 5022,
      "葬": 5023,
      "葭": 5024,
      "葱": 5025,
      "葳": 5026,
      "葵": 5027,
      "葺": 5028,
      "蒂": 5029,
      "蒋": 5030,
      "蒙": 5031,
      "蒜": 5032,
      "蒞": 5033,
      "蒟": 5034,
      "蒯": 5035,
      "蒲": 5036,
      "蒴": 5037,
      "蒸": 5038,
      "蒹": 5039,
      "蒻": 5040,
      "蒼": 5041,
      "蒽": 5042,
      "蒿": 5043,
      "蓄": 5044,
      "蓉": 5045,
      "蓊": 5046,
      "蓑": 5047,
      "蓓": 5048,
      "蓝": 5049,
      "蓟": 5050,
      "蓣": 5051,
      "蓥": 5052,
      "蓦": 5053,
      "蓬": 5054,
      "蓼": 5055,
      "蓿": 5056,
      "蔊": 5057,
      "蔍": 5058,
      "蔑": 5059,
      "蔓": 5060,
      "蔗": 5061,
      "蔚": 5062,
      "蔡": 5063,
      "蔫": 5064,
      "蔬": 5065,
      "蔯": 5066,
      "蔷": 5067,
      "蔺": 5068,
      "蔻": 5069,
      "蔼": 5070,
      "蔽": 5071,
      "蕃": 5072,
      "蕈": 5073,
      "蕉": 5074,
      "蕊": 5075,
      "蕖": 5076,
      "蕙": 5077,
      "蕤": 5078,
      "蕨": 5079,
      "蕩": 5080,
      "蕴": 5081,
      "蕹": 5082,
      "蕻": 5083,
      "蕾": 5084,
      "薄": 5085,
      "薇": 5086,
      "薏": 5087,
      "薔": 5088,
      "薙": 5089,
      "薛": 5090,
      "薜": 5091,
      "薦": 5092,
      "薩": 5093,
      "薪": 5094,
      "薬": 5095,
      "薯": 5096,
      "薰": 5097,
      "薷": 5098,
      "薹": 5099,
      "藉": 5100,
      "藍": 5101,
      "藏": 5102,
      "藐": 5103,
      "藓": 5104,
      "藕": 5105,
      "藜": 5106,
      "藝": 5107,
      "藤": 5108,
      "藩": 5109,
      "藻": 5110,
      "藿": 5111,
      "蘂": 5112,
      "蘅": 5113,
      "蘆": 5114,
      "蘇": 5115,
      "蘋": 5116,
      "蘑": 5117,
      "蘚": 5118,
      "蘭": 5119,
      "蘸": 5120,
      "蘼": 5121,
      "虎": 5122,
      "虏": 5123,
      "虐": 5124,
      "虑": 5125,
      "虔": 5126,
      "處": 5127,
      "虚": 5128,
      "虛": 5129,
      "虞": 5130,
      "號": 5131,
      "虫": 5132,
      "虱": 5133,
      "虹": 5134,
      "虻": 5135,
      "虽": 5136,
      "虾": 5137,
      "虿": 5138,
      "蚀": 5139,
      "蚁": 5140,
      "蚂": 5141,
      "蚊": 5142,
      "蚌": 5143,
      "蚓": 5144,
      "蚕": 5145,
      "蚜": 5146,
      "蚝": 5147,
      "蚣": 5148,
      "蚤": 5149,
      "蚩": 5150,
      "蚪": 5151,
      "蚬": 5152,
      "蚯": 5153,
      "蚱": 5154,
      "蚴": 5155,
      "蚶": 5156,
      "蚺": 5157,
      "蛀": 5158,
      "蛇": 5159,
      "蛉": 5160,
      "蛊": 5161,
      "蛋": 5162,
      "蛎": 5163,
      "蛏": 5164,
      "蛐": 5165,
      "蛙": 5166,
      "蛛": 5167,
      "蛞": 5168,
      "蛟": 5169,
      "蛤": 5170,
      "蛩": 5171,
      "蛭": 5172,
      "蛮": 5173,
      "蛰": 5174,
      "蛱": 5175,
      "蛸": 5176,
      "蛹": 5177,
      "蛾": 5178,
      "蜀": 5179,
      "蜂": 5180,
      "蜃": 5181,
      "蜇": 5182,
      "蜈": 5183,
      "蜉": 5184,
      "蜊": 5185,
      "蜍": 5186,
      "蜒": 5187,
      "蜓": 5188,
      "蜕": 5189,
      "蜗": 5190,
      "蜘": 5191,
      "蜚": 5192,
      "蜜": 5193,
      "蜡": 5194,
      "蜢": 5195,
      "蜥": 5196,
      "蜩": 5197,
      "蜱": 5198,
      "蜴": 5199,
      "蜷": 5200,
      "蜻": 5201,
      "蜿": 5202,
      "蝇": 5203,
      "蝉": 5204,
      "蝌": 5205,
      "蝎": 5206,
      "蝓": 5207,
      "蝗": 5208,
      "蝙": 5209,
      "蝠": 5210,
      "蝣": 5211,
      "蝮": 5212,
      "蝰": 5213,
      "蝴": 5214,
      "蝶": 5215,
      "蝼": 5216,
      "蝽": 5217,
      "蝾": 5218,
      "螂": 5219,
      "螃": 5220,
      "螅": 5221,
      "螈": 5222,
      "融": 5223,
      "螟": 5224,
      "螨": 5225,
      "螫": 5226,
      "螯": 5227,
      "螳": 5228,
      "螺": 5229,
      "螽": 5230,
      "蟀": 5231,
      "蟆": 5232,
      "蟋": 5233,
      "蟑": 5234,
      "蟒": 5235,
      "蟠": 5236,
      "蟥": 5237,
      "蟲": 5238,
      "蟹": 5239,
      "蟻": 5240,
      "蟾": 5241,
      "蠕": 5242,
      "蠡": 5243,
      "蠢": 5244,
      "蠹": 5245,
      "血": 5246,
      "衄": 5247,
      "衅": 5248,
      "行": 5249,
      "衍": 5250,
      "術": 5251,
      "衔": 5252,
      "街": 5253,
      "衙": 5254,
      "衛": 5255,
      "衝": 5256,
      "衡": 5257,
      "衢": 5258,
      "衣": 5259,
      "补": 5260,
      "表": 5261,
      "衫": 5262,
      "衬": 5263,
      "衰": 5264,
      "衷": 5265,
      "衽": 5266,
      "衾": 5267,
      "袁": 5268,
      "袂": 5269,
      "袄": 5270,
      "袅": 5271,
      "袋": 5272,
      "袍": 5273,
      "袒": 5274,
      "袖": 5275,
      "袜": 5276,
      "袤": 5277,
      "被": 5278,
      "袭": 5279,
      "袱": 5280,
      "裁": 5281,
      "裂": 5282,
      "装": 5283,
      "裆": 5284,
      "裏": 5285,
      "裔": 5286,
      "裕": 5287,
      "裘": 5288,
      "裙": 5289,
      "補": 5290,
      "裝": 5291,
      "裡": 5292,
      "裤": 5293,
      "裨": 5294,
      "裱": 5295,
      "裳": 5296,
      "裴": 5297,
      "裸": 5298,
      "裹": 5299,
      "製": 5300,
      "裾": 5301,
      "褂": 5302,
      "複": 5303,
      "褐": 5304,
      "褒": 5305,
      "褓": 5306,
      "褚": 5307,
      "褛": 5308,
      "褡": 5309,
      "褥": 5310,
      "褪": 5311,
      "褴": 5312,
      "褶": 5313,
      "襁": 5314,
      "襄": 5315,
      "襟": 5316,
      "襦": 5317,
      "襪": 5318,
      "襲": 5319,
      "西": 5320,
      "要": 5321,
      "覆": 5322,
      "見": 5323,
      "規": 5324,
      "視": 5325,
      "覩": 5326,
      "親": 5327,
      "観": 5328,
      "覺": 5329,
      "覽": 5330,
      "觀": 5331,
      "见": 5332,
      "观": 5333,
      "规": 5334,
      "觅": 5335,
      "视": 5336,
      "览": 5337,
      "觉": 5338,
      "觊": 5339,
      "觎": 5340,
      "觑": 5341,
      "角": 5342,
      "觞": 5343,
      "解": 5344,
      "觥": 5345,
      "触": 5346,
      "觸": 5347,
      "言": 5348,
      "計": 5349,
      "訊": 5350,
      "訓": 5351,
      "記": 5352,
      "訝": 5353,
      "訪": 5354,
      "設": 5355,
      "許": 5356,
      "訳": 5357,
      "訴": 5358,
      "証": 5359,
      "評": 5360,
      "詞": 5361,
      "試": 5362,
      "詩": 5363,
      "詭": 5364,
      "話": 5365,
      "該": 5366,
      "詳": 5367,
      "詹": 5368,
      "誉": 5369,
      "誌": 5370,
      "誓": 5371,
      "誕": 5372,
      "語": 5373,
      "誠": 5374,
      "說": 5375,
      "説": 5376,
      "誰": 5377,
      "誼": 5378,
      "調": 5379,
      "請": 5380,
      "諏": 5381,
      "論": 5382,
      "諾": 5383,
      "謀": 5384,
      "謇": 5385,
      "謎": 5386,
      "謝": 5387,
      "識": 5388,
      "警": 5389,
      "譬": 5390,
      "譯": 5391,
      "議": 5392,
      "譴": 5393,
      "護": 5394,
      "譽": 5395,
      "讀": 5396,
      "變": 5397,
      "讓": 5398,
      "计": 5399,
      "订": 5400,
      "认": 5401,
      "讥": 5402,
      "讨": 5403,
      "让": 5404,
      "讪": 5405,
      "训": 5406,
      "议": 5407,
      "讯": 5408,
      "记": 5409,
      "讱": 5410,
      "讲": 5411,
      "讳": 5412,
      "讴": 5413,
      "讶": 5414,
      "讷": 5415,
      "许": 5416,
      "讹": 5417,
      "论": 5418,
      "讼": 5419,
      "讽": 5420,
      "设": 5421,
      "访": 5422,
      "诀": 5423,
      "证": 5424,
      "诃": 5425,
      "评": 5426,
      "诅": 5427,
      "识": 5428,
      "诈": 5429,
      "诉": 5430,
      "诊": 5431,
      "诋": 5432,
      "词": 5433,
      "诏": 5434,
      "译": 5435,
      "诒": 5436,
      "试": 5437,
      "诗": 5438,
      "诘": 5439,
      "诙": 5440,
      "诚": 5441,
      "诛": 5442,
      "话": 5443,
      "诞": 5444,
      "诠": 5445,
      "诡": 5446,
      "询": 5447,
      "诣": 5448,
      "该": 5449,
      "详": 5450,
      "诧": 5451,
      "诨": 5452,
      "诩": 5453,
      "诫": 5454,
      "诬": 5455,
      "语": 5456,
      "误": 5457,
      "诰": 5458,
      "诱": 5459,
      "诲": 5460,
      "说": 5461,
      "诵": 5462,
      "请": 5463,
      "诸": 5464,
      "诺": 5465,
      "读": 5466,
      "诽": 5467,
      "课": 5468,
      "谁": 5469,
      "调": 5470,
      "谄": 5471,
      "谅": 5472,
      "谇": 5473,
      "谈": 5474,
      "谊": 5475,
      "谋": 5476,
      "谍": 5477,
      "谎": 5478,
      "谏": 5479,
      "谐": 5480,
      "谑": 5481,
      "谓": 5482,
      "谔": 5483,
      "谕": 5484,
      "谗": 5485,
      "谘": 5486,
      "谙": 5487,
      "谚": 5488,
      "谛": 5489,
      "谜": 5490,
      "谟": 5491,
      "谢": 5492,
      "谣": 5493,
      "谤": 5494,
      "谦": 5495,
      "谧": 5496,
      "谨": 5497,
      "谩": 5498,
      "谪": 5499,
      "谬": 5500,
      "谭": 5501,
      "谱": 5502,
      "谲": 5503,
      "谴": 5504,
      "谷": 5505,
      "豁": 5506,
      "豆": 5507,
      "豇": 5508,
      "豉": 5509,
      "豊": 5510,
      "豌": 5511,
      "豐": 5512,
      "豚": 5513,
      "象": 5514,
      "豢": 5515,
      "豪": 5516,
      "豫": 5517,
      "豬": 5518,
      "豹": 5519,
      "豺": 5520,
      "貂": 5521,
      "貅": 5522,
      "貌": 5523,
      "貓": 5524,
      "貔": 5525,
      "貘": 5526,
      "貝": 5527,
      "負": 5528,
      "貤": 5529,
      "買": 5530,
      "資": 5531,
      "賓": 5532,
      "賜": 5533,
      "賞": 5534,
      "賢": 5535,
      "賦": 5536,
      "質": 5537,
      "賴": 5538,
      "賽": 5539,
      "贈": 5540,
      "贏": 5541,
      "贝": 5542,
      "贞": 5543,
      "负": 5544,
      "贡": 5545,
      "财": 5546,
      "责": 5547,
      "贤": 5548,
      "败": 5549,
      "账": 5550,
      "货": 5551,
      "质": 5552,
      "贩": 5553,
      "贪": 5554,
      "贫": 5555,
      "贬": 5556,
      "购": 5557,
      "贮": 5558,
      "贯": 5559,
      "贰": 5560,
      "贱": 5561,
      "贲": 5562,
      "贴": 5563,
      "贵": 5564,
      "贷": 5565,
      "贸": 5566,
      "费": 5567,
      "贺": 5568,
      "贻": 5569,
      "贼": 5570,
      "贾": 5571,
      "贿": 5572,
      "赁": 5573,
      "赂": 5574,
      "赃": 5575,
      "资": 5576,
      "赅": 5577,
      "赈": 5578,
      "赊": 5579,
      "赋": 5580,
      "赌": 5581,
      "赎": 5582,
      "赏": 5583,
      "赐": 5584,
      "赓": 5585,
      "赔": 5586,
      "赖": 5587,
      "赘": 5588,
      "赚": 5589,
      "赛": 5590,
      "赝": 5591,
      "赞": 5592,
      "赠": 5593,
      "赡": 5594,
      "赢": 5595,
      "赣": 5596,
      "赤": 5597,
      "赦": 5598,
      "赫": 5599,
      "赭": 5600,
      "走": 5601,
      "赴": 5602,
      "赵": 5603,
      "赶": 5604,
      "起": 5605,
      "趁": 5606,
      "超": 5607,
      "越": 5608,
      "趋": 5609,
      "趙": 5610,
      "趟": 5611,
      "趣": 5612,
      "足": 5613,
      "趴": 5614,
      "趵": 5615,
      "趸": 5616,
      "趺": 5617,
      "趾": 5618,
      "跃": 5619,
      "跆": 5620,
      "跋": 5621,
      "跌": 5622,
      "跎": 5623,
      "跏": 5624,
      "跑": 5625,
      "跖": 5626,
      "跗": 5627,
      "跚": 5628,
      "跛": 5629,
      "距": 5630,
      "跟": 5631,
      "跡": 5632,
      "跤": 5633,
      "跨": 5634,
      "跪": 5635,
      "跬": 5636,
      "路": 5637,
      "跳": 5638,
      "践": 5639,
      "跶": 5640,
      "跷": 5641,
      "跹": 5642,
      "跺": 5643,
      "跻": 5644,
      "踊": 5645,
      "踌": 5646,
      "踏": 5647,
      "踝": 5648,
      "踞": 5649,
      "踟": 5650,
      "踢": 5651,
      "踩": 5652,
      "踪": 5653,
      "踮": 5654,
      "踯": 5655,
      "踱": 5656,
      "踵": 5657,
      "踽": 5658,
      "蹁": 5659,
      "蹂": 5660,
      "蹄": 5661,
      "蹇": 5662,
      "蹈": 5663,
      "蹉": 5664,
      "蹊": 5665,
      "蹋": 5666,
      "蹑": 5667,
      "蹒": 5668,
      "蹙": 5669,
      "蹤": 5670,
      "蹦": 5671,
      "蹩": 5672,
      "蹬": 5673,
      "蹭": 5674,
      "蹲": 5675,
      "蹴": 5676,
      "蹶": 5677,
      "蹼": 5678,
      "蹿": 5679,
      "躁": 5680,
      "躇": 5681,
      "躍": 5682,
      "躏": 5683,
      "身": 5684,
      "躬": 5685,
      "躯": 5686,
      "躲": 5687,
      "躺": 5688,
      "軀": 5689,
      "軅": 5690,
      "車": 5691,
      "軋": 5692,
      "軍": 5693,
      "軟": 5694,
      "較": 5695,
      "輔": 5696,
      "輕": 5697,
      "輟": 5698,
      "輪": 5699,
      "輸": 5700,
      "轉": 5701,
      "车": 5702,
      "轧": 5703,
      "轨": 5704,
      "轩": 5705,
      "转": 5706,
      "轭": 5707,
      "轮": 5708,
      "软": 5709,
      "轰": 5710,
      "轴": 5711,
      "轶": 5712,
      "轻": 5713,
      "轼": 5714,
      "载": 5715,
      "轿": 5716,
      "较": 5717,
      "辄": 5718,
      "辅": 5719,
      "辆": 5720,
      "辈": 5721,
      "辉": 5722,
      "辋": 5723,
      "辍": 5724,
      "辐": 5725,
      "辑": 5726,
      "输": 5727,
      "辕": 5728,
      "辖": 5729,
      "辗": 5730,
      "辘": 5731,
      "辙": 5732,
      "辛": 5733,
      "辜": 5734,
      "辞": 5735,
      "辟": 5736,
      "辣": 5737,
      "辨": 5738,
      "辩": 5739,
      "辫": 5740,
      "辰": 5741,
      "辱": 5742,
      "边": 5743,
      "辺": 5744,
      "辻": 5745,
      "辽": 5746,
      "达": 5747,
      "迁": 5748,
      "迂": 5749,
      "迄": 5750,
      "迅": 5751,
      "过": 5752,
      "迈": 5753,
      "迎": 5754,
      "运": 5755,
      "近": 5756,
      "返": 5757,
      "还": 5758,
      "这": 5759,
      "进": 5760,
      "远": 5761,
      "违": 5762,
      "连": 5763,
      "迟": 5764,
      "迢": 5765,
      "迤": 5766,
      "迥": 5767,
      "迦": 5768,
      "迩": 5769,
      "迪": 5770,
      "迫": 5771,
      "迭": 5772,
      "述": 5773,
      "迴": 5774,
      "迷": 5775,
      "迸": 5776,
      "迹": 5777,
      "迺": 5778,
      "追": 5779,
      "退": 5780,
      "送": 5781,
      "适": 5782,
      "逃": 5783,
      "逅": 5784,
      "逆": 5785,
      "选": 5786,
      "逊": 5787,
      "逍": 5788,
      "透": 5789,
      "逐": 5790,
      "逑": 5791,
      "递": 5792,
      "途": 5793,
      "逗": 5794,
      "這": 5795,
      "通": 5796,
      "逛": 5797,
      "逝": 5798,
      "逞": 5799,
      "速": 5800,
      "造": 5801,
      "逢": 5802,
      "連": 5803,
      "逦": 5804,
      "逮": 5805,
      "週": 5806,
      "進": 5807,
      "逵": 5808,
      "逶": 5809,
      "逸": 5810,
      "逻": 5811,
      "逼": 5812,
      "逾": 5813,
      "逿": 5814,
      "遁": 5815,
      "遂": 5816,
      "遄": 5817,
      "遇": 5818,
      "遊": 5819,
      "運": 5820,
      "遍": 5821,
      "過": 5822,
      "遏": 5823,
      "遐": 5824,
      "遒": 5825,
      "道": 5826,
      "達": 5827,
      "遗": 5828,
      "遛": 5829,
      "遠": 5830,
      "遣": 5831,
      "遥": 5832,
      "遨": 5833,
      "適": 5834,
      "遭": 5835,
      "遮": 5836,
      "遵": 5837,
      "選": 5838,
      "遺": 5839,
      "避": 5840,
      "邀": 5841,
      "邁": 5842,
      "邂": 5843,
      "邃": 5844,
      "還": 5845,
      "邅": 5846,
      "邊": 5847,
      "邑": 5848,
      "邓": 5849,
      "邢": 5850,
      "那": 5851,
      "邦": 5852,
      "邨": 5853,
      "邪": 5854,
      "邮": 5855,
      "邯": 5856,
      "邱": 5857,
      "邶": 5858,
      "邸": 5859,
      "邹": 5860,
      "邺": 5861,
      "邻": 5862,
      "郁": 5863,
      "郊": 5864,
      "郎": 5865,
      "郑": 5866,
      "郝": 5867,
      "郡": 5868,
      "部": 5869,
      "郫": 5870,
      "郭": 5871,
      "郵": 5872,
      "郷": 5873,
      "郸": 5874,
      "都": 5875,
      "鄂": 5876,
      "鄄": 5877,
      "鄉": 5878,
      "鄙": 5879,
      "鄭": 5880,
      "鄱": 5881,
      "酉": 5882,
      "酋": 5883,
      "酌": 5884,
      "配": 5885,
      "酐": 5886,
      "酒": 5887,
      "酗": 5888,
      "酚": 5889,
      "酝": 5890,
      "酞": 5891,
      "酢": 5892,
      "酣": 5893,
      "酥": 5894,
      "酪": 5895,
      "酬": 5896,
      "酮": 5897,
      "酯": 5898,
      "酰": 5899,
      "酱": 5900,
      "酵": 5901,
      "酶": 5902,
      "酷": 5903,
      "酸": 5904,
      "酹": 5905,
      "酿": 5906,
      "醂": 5907,
      "醅": 5908,
      "醇": 5909,
      "醉": 5910,
      "醋": 5911,
      "醌": 5912,
      "醍": 5913,
      "醐": 5914,
      "醒": 5915,
      "醚": 5916,
      "醛": 5917,
      "醣": 5918,
      "醪": 5919,
      "醫": 5920,
      "醬": 5921,
      "醴": 5922,
      "醺": 5923,
      "釀": 5924,
      "采": 5925,
      "釉": 5926,
      "释": 5927,
      "釋": 5928,
      "里": 5929,
      "重": 5930,
      "野": 5931,
      "量": 5932,
      "金": 5933,
      "釜": 5934,
      "釣": 5935,
      "釭": 5936,
      "鉴": 5937,
      "銀": 5938,
      "銳": 5939,
      "銷": 5940,
      "鋼": 5941,
      "錄": 5942,
      "錦": 5943,
      "鍾": 5944,
      "鎌": 5945,
      "鎚": 5946,
      "鎰": 5947,
      "鏡": 5948,
      "鐘": 5949,
      "鐵": 5950,
      "鑫": 5951,
      "钅": 5952,
      "钇": 5953,
      "针": 5954,
      "钉": 5955,
      "钋": 5956,
      "钌": 5957,
      "钍": 5958,
      "钏": 5959,
      "钒": 5960,
      "钓": 5961,
      "钔": 5962,
      "钗": 5963,
      "钙": 5964,
      "钚": 5965,
      "钛": 5966,
      "钜": 5967,
      "钝": 5968,
      "钞": 5969,
      "钟": 5970,
      "钠": 5971,
      "钡": 5972,
      "钢": 5973,
      "钣": 5974,
      "钤": 5975,
      "钥": 5976,
      "钦": 5977,
      "钧": 5978,
      "钨": 5979,
      "钩": 5980,
      "钪": 5981,
      "钮": 5982,
      "钯": 5983,
      "钰": 5984,
      "钱": 5985,
      "钳": 5986,
      "钴": 5987,
      "钵": 5988,
      "钹": 5989,
      "钻": 5990,
      "钼": 5991,
      "钾": 5992,
      "钿": 5993,
      "铀": 5994,
      "铁": 5995,
      "铂": 5996,
      "铃": 5997,
      "铄": 5998,
      "铅": 5999,
      "铆": 6000,
      "铊": 6001,
      "铋": 6002,
      "铌": 6003,
      "铍": 6004,
      "铐": 6005,
      "铑": 6006,
      "铒": 6007,
      "铛": 6008,
      "铜": 6009,
      "铝": 6010,
      "铟": 6011,
      "铠": 6012,
      "铢": 6013,
      "铪": 6014,
      "铬": 6015,
      "铭": 6016,
      "铮": 6017,
      "铯": 6018,
      "铰": 6019,
      "铱": 6020,
      "铲": 6021,
      "铳": 6022,
      "铵": 6023,
      "银": 6024,
      "铷": 6025,
      "铸": 6026,
      "铹": 6027,
      "铺": 6028,
      "链": 6029,
      "铿": 6030,
      "销": 6031,
      "锁": 6032,
      "锂": 6033,
      "锃": 6034,
      "锄": 6035,
      "锅": 6036,
      "锆": 6037,
      "锇": 6038,
      "锈": 6039,
      "锉": 6040,
      "锋": 6041,
      "锌": 6042,
      "锏": 6043,
      "锐": 6044,
      "锑": 6045,
      "锕": 6046,
      "锗": 6047,
      "锘": 6048,
      "错": 6049,
      "锚": 6050,
      "锛": 6051,
      "锡": 6052,
      "锢": 6053,
      "锣": 6054,
      "锤": 6055,
      "锥": 6056,
      "锦": 6057,
      "锭": 6058,
      "键": 6059,
      "锯": 6060,
      "锰": 6061,
      "锱": 6062,
      "锲": 6063,
      "锵": 6064,
      "锶": 6065,
      "锹": 6066,
      "锺": 6067,
      "锻": 6068,
      "镀": 6069,
      "镁": 6070,
      "镂": 6071,
      "镇": 6072,
      "镉": 6073,
      "镊": 6074,
      "镌": 6075,
      "镍": 6076,
      "镐": 6077,
      "镑": 6078,
      "镒": 6079,
      "镖": 6080,
      "镛": 6081,
      "镜": 6082,
      "镝": 6083,
      "镣": 6084,
      "镧": 6085,
      "镫": 6086,
      "镭": 6087,
      "镯": 6088,
      "镰": 6089,
      "镱": 6090,
      "镳": 6091,
      "镶": 6092,
      "長": 6093,
      "长": 6094,
      "門": 6095,
      "開": 6096,
      "間": 6097,
      "閣": 6098,
      "閱": 6099,
      "闇": 6100,
      "闌": 6101,
      "關": 6102,
      "门": 6103,
      "闩": 6104,
      "闪": 6105,
      "闫": 6106,
      "闭": 6107,
      "问": 6108,
      "闯": 6109,
      "闰": 6110,
      "闲": 6111,
      "间": 6112,
      "闵": 6113,
      "闷": 6114,
      "闸": 6115,
      "闹": 6116,
      "闺": 6117,
      "闻": 6118,
      "闽": 6119,
      "闾": 6120,
      "阀": 6121,
      "阁": 6122,
      "阂": 6123,
      "阅": 6124,
      "阆": 6125,
      "阈": 6126,
      "阎": 6127,
      "阐": 6128,
      "阑": 6129,
      "阔": 6130,
      "阕": 6131,
      "阖": 6132,
      "阙": 6133,
      "阜": 6134,
      "阝": 6135,
      "队": 6136,
      "阡": 6137,
      "阪": 6138,
      "阮": 6139,
      "阱": 6140,
      "防": 6141,
      "阳": 6142,
      "阴": 6143,
      "阵": 6144,
      "阶": 6145,
      "阻": 6146,
      "阿": 6147,
      "陀": 6148,
      "陂": 6149,
      "附": 6150,
      "际": 6151,
      "陆": 6152,
      "陇": 6153,
      "陈": 6154,
      "陋": 6155,
      "陌": 6156,
      "降": 6157,
      "限": 6158,
      "陕": 6159,
      "陛": 6160,
      "陡": 6161,
      "院": 6162,
      "除": 6163,
      "陨": 6164,
      "险": 6165,
      "陪": 6166,
      "陬": 6167,
      "陰": 6168,
      "陲": 6169,
      "陳": 6170,
      "陵": 6171,
      "陶": 6172,
      "陷": 6173,
      "陸": 6174,
      "険": 6175,
      "陽": 6176,
      "隅": 6177,
      "隆": 6178,
      "隉": 6179,
      "隊": 6180,
      "隋": 6181,
      "隍": 6182,
      "随": 6183,
      "隐": 6184,
      "隔": 6185,
      "隘": 6186,
      "隙": 6187,
      "際": 6188,
      "障": 6189,
      "隧": 6190,
      "隨": 6191,
      "險": 6192,
      "隱": 6193,
      "隶": 6194,
      "隸": 6195,
      "隻": 6196,
      "隼": 6197,
      "隽": 6198,
      "难": 6199,
      "雀": 6200,
      "雁": 6201,
      "雄": 6202,
      "雅": 6203,
      "集": 6204,
      "雇": 6205,
      "雉": 6206,
      "雌": 6207,
      "雍": 6208,
      "雎": 6209,
      "雏": 6210,
      "雑": 6211,
      "雕": 6212,
      "雜": 6213,
      "雞": 6214,
      "離": 6215,
      "難": 6216,
      "雨": 6217,
      "雪": 6218,
      "雯": 6219,
      "雲": 6220,
      "雳": 6221,
      "零": 6222,
      "雷": 6223,
      "雹": 6224,
      "電": 6225,
      "雾": 6226,
      "需": 6227,
      "霁": 6228,
      "霄": 6229,
      "霆": 6230,
      "震": 6231,
      "霉": 6232,
      "霍": 6233,
      "霎": 6234,
      "霏": 6235,
      "霑": 6236,
      "霓": 6237,
      "霖": 6238,
      "霜": 6239,
      "霞": 6240,
      "霧": 6241,
      "霭": 6242,
      "霰": 6243,
      "露": 6244,
      "霸": 6245,
      "霹": 6246,
      "霾": 6247,
      "靈": 6248,
      "青": 6249,
      "靓": 6250,
      "靖": 6251,
      "静": 6252,
      "靚": 6253,
      "靛": 6254,
      "靜": 6255,
      "非": 6256,
      "靠": 6257,
      "靡": 6258,
      "面": 6259,
      "靥": 6260,
      "革": 6261,
      "靴": 6262,
      "靶": 6263,
      "鞋": 6264,
      "鞍": 6265,
      "鞘": 6266,
      "鞠": 6267,
      "鞣": 6268,
      "鞭": 6269,
      "鞿": 6270,
      "韓": 6271,
      "韦": 6272,
      "韧": 6273,
      "韩": 6274,
      "韬": 6275,
      "韭": 6276,
      "音": 6277,
      "韵": 6278,
      "韶": 6279,
      "韻": 6280,
      "響": 6281,
      "頂": 6282,
      "順": 6283,
      "須": 6284,
      "預": 6285,
      "頒": 6286,
      "頓": 6287,
      "頔": 6288,
      "領": 6289,
      "頤": 6290,
      "頫": 6291,
      "頭": 6292,
      "頸": 6293,
      "頻": 6294,
      "頼": 6295,
      "題": 6296,
      "顏": 6297,
      "願": 6298,
      "類": 6299,
      "顯": 6300,
      "页": 6301,
      "顶": 6302,
      "顷": 6303,
      "项": 6304,
      "顺": 6305,
      "须": 6306,
      "顽": 6307,
      "顾": 6308,
      "顿": 6309,
      "颁": 6310,
      "颂": 6311,
      "预": 6312,
      "颅": 6313,
      "领": 6314,
      "颇": 6315,
      "颈": 6316,
      "颊": 6317,
      "颌": 6318,
      "颍": 6319,
      "颐": 6320,
      "频": 6321,
      "颓": 6322,
      "颔": 6323,
      "颖": 6324,
      "颗": 6325,
      "题": 6326,
      "颚": 6327,
      "颜": 6328,
      "额": 6329,
      "颞": 6330,
      "颠": 6331,
      "颢": 6332,
      "颤": 6333,
      "颦": 6334,
      "颧": 6335,
      "風": 6336,
      "风": 6337,
      "飒": 6338,
      "飓": 6339,
      "飕": 6340,
      "飘": 6341,
      "飙": 6342,
      "飛": 6343,
      "飞": 6344,
      "食": 6345,
      "飢": 6346,
      "飨": 6347,
      "飯": 6348,
      "飲": 6349,
      "飼": 6350,
      "餃": 6351,
      "餅": 6352,
      "養": 6353,
      "餐": 6354,
      "餚": 6355,
      "館": 6356,
      "餮": 6357,
      "饌": 6358,
      "饐": 6359,
      "饕": 6360,
      "饗": 6361,
      "饥": 6362,
      "饧": 6363,
      "饨": 6364,
      "饪": 6365,
      "饭": 6366,
      "饮": 6367,
      "饯": 6368,
      "饰": 6369,
      "饱": 6370,
      "饲": 6371,
      "饵": 6372,
      "饶": 6373,
      "饸": 6374,
      "饺": 6375,
      "饼": 6376,
      "饿": 6377,
      "馀": 6378,
      "馁": 6379,
      "馄": 6380,
      "馅": 6381,
      "馆": 6382,
      "馈": 6383,
      "馋": 6384,
      "馍": 6385,
      "馏": 6386,
      "馐": 6387,
      "馒": 6388,
      "馔": 6389,
      "馕": 6390,
      "首": 6391,
      "馗": 6392,
      "香": 6393,
      "馥": 6394,
      "馨": 6395,
      "馬": 6396,
      "駁": 6397,
      "駅": 6398,
      "駕": 6399,
      "驗": 6400,
      "驚": 6401,
      "马": 6402,
      "驭": 6403,
      "驯": 6404,
      "驰": 6405,
      "驱": 6406,
      "驳": 6407,
      "驴": 6408,
      "驶": 6409,
      "驹": 6410,
      "驻": 6411,
      "驼": 6412,
      "驾": 6413,
      "驿": 6414,
      "骁": 6415,
      "骂": 6416,
      "骄": 6417,
      "骆": 6418,
      "骇": 6419,
      "骈": 6420,
      "骉": 6421,
      "骊": 6422,
      "骋": 6423,
      "验": 6424,
      "骏": 6425,
      "骑": 6426,
      "骓": 6427,
      "骗": 6428,
      "骚": 6429,
      "骛": 6430,
      "骜": 6431,
      "骞": 6432,
      "骡": 6433,
      "骤": 6434,
      "骧": 6435,
      "骨": 6436,
      "骰": 6437,
      "骶": 6438,
      "骷": 6439,
      "骸": 6440,
      "骼": 6441,
      "髂": 6442,
      "髅": 6443,
      "髋": 6444,
      "髒": 6445,
      "髓": 6446,
      "體": 6447,
      "高": 6448,
      "髦": 6449,
      "髪": 6450,
      "髮": 6451,
      "髯": 6452,
      "髹": 6453,
      "髻": 6454,
      "鬃": 6455,
      "鬓": 6456,
      "鬟": 6457,
      "鬣": 6458,
      "鬥": 6459,
      "鬼": 6460,
      "魁": 6461,
      "魂": 6462,
      "魄": 6463,
      "魅": 6464,
      "魇": 6465,
      "魉": 6466,
      "魍": 6467,
      "魏": 6468,
      "魑": 6469,
      "魔": 6470,
      "魚": 6471,
      "鮟": 6472,
      "鮨": 6473,
      "鮭": 6474,
      "鮮": 6475,
      "鯉": 6476,
      "鰓": 6477,
      "鰕": 6478,
      "鱇": 6479,
      "鱗": 6480,
      "鱶": 6481,
      "鱼": 6482,
      "鱿": 6483,
      "鲀": 6484,
      "鲁": 6485,
      "鲅": 6486,
      "鲈": 6487,
      "鲍": 6488,
      "鲐": 6489,
      "鲑": 6490,
      "鲔": 6491,
      "鲛": 6492,
      "鲜": 6493,
      "鲟": 6494,
      "鲡": 6495,
      "鲢": 6496,
      "鲣": 6497,
      "鲤": 6498,
      "鲥": 6499,
      "鲨": 6500,
      "鲫": 6501,
      "鲭": 6502,
      "鲮": 6503,
      "鲱": 6504,
      "鲲": 6505,
      "鲳": 6506,
      "鲶": 6507,
      "鲷": 6508,
      "鲸": 6509,
      "鲻": 6510,
      "鲼": 6511,
      "鲽": 6512,
      "鳃": 6513,
      "鳄": 6514,
      "鳅": 6515,
      "鳊": 6516,
      "鳌": 6517,
      "鳍": 6518,
      "鳐": 6519,
      "鳔": 6520,
      "鳕": 6521,
      "鳖": 6522,
      "鳗": 6523,
      "鳙": 6524,
      "鳜": 6525,
      "鳝": 6526,
      "鳞": 6527,
      "鳟": 6528,
      "鳥": 6529,
      "鳮": 6530,
      "鳳": 6531,
      "鴈": 6532,
      "鵝": 6533,
      "鵯": 6534,
      "鶏": 6535,
      "鶿": 6536,
      "鸕": 6537,
      "鸟": 6538,
      "鸠": 6539,
      "鸡": 6540,
      "鸢": 6541,
      "鸣": 6542,
      "鸥": 6543,
      "鸦": 6544,
      "鸩": 6545,
      "鸪": 6546,
      "鸫": 6547,
      "鸬": 6548,
      "鸭": 6549,
      "鸮": 6550,
      "鸯": 6551,
      "鸳": 6552,
      "鸵": 6553,
      "鸸": 6554,
      "鸺": 6555,
      "鸽": 6556,
      "鸾": 6557,
      "鸿": 6558,
      "鹀": 6559,
      "鹂": 6560,
      "鹃": 6561,
      "鹄": 6562,
      "鹅": 6563,
      "鹈": 6564,
      "鹉": 6565,
      "鹊": 6566,
      "鹋": 6567,
      "鹌": 6568,
      "鹏": 6569,
      "鹑": 6570,
      "鹕": 6571,
      "鹗": 6572,
      "鹚": 6573,
      "鹜": 6574,
      "鹝": 6575,
      "鹠": 6576,
      "鹤": 6577,
      "鹦": 6578,
      "鹧": 6579,
      "鹩": 6580,
      "鹫": 6581,
      "鹬": 6582,
      "鹭": 6583,
      "鹰": 6584,
      "鹱": 6585,
      "鹳": 6586,
      "鹸": 6587,
      "鹹": 6588,
      "鹿": 6589,
      "麂": 6590,
      "麋": 6591,
      "麒": 6592,
      "麓": 6593,
      "麗": 6594,
      "麝": 6595,
      "麟": 6596,
      "麥": 6597,
      "麦": 6598,
      "麵": 6599,
      "麸": 6600,
      "麺": 6601,
      "麻": 6602,
      "麼": 6603,
      "麽": 6604,
      "黃": 6605,
      "黄": 6606,
      "黍": 6607,
      "黎": 6608,
      "黏": 6609,
      "黑": 6610,
      "黔": 6611,
      "默": 6612,
      "黛": 6613,
      "黜": 6614,
      "黝": 6615,
      "點": 6616,
      "黟": 6617,
      "黠": 6618,
      "黯": 6619,
      "鼋": 6620,
      "鼎": 6621,
      "鼐": 6622,
      "鼓": 6623,
      "鼠": 6624,
      "鼩": 6625,
      "鼬": 6626,
      "鼱": 6627,
      "鼹": 6628,
      "鼻": 6629,
      "鼾": 6630,
      "齐": 6631,
      "齒": 6632,
      "齮": 6633,
      "齿": 6634,
      "龄": 6635,
      "龈": 6636,
      "龊": 6637,
      "龋": 6638,
      "龌": 6639,
      "龍": 6640,
      "龐": 6641,
      "龙": 6642,
      "龚": 6643,
      "龛": 6644,
      "龟": 6645,
      "가": 6646,
      "각": 6647,
      "감": 6648,
      "같": 6649,
      "개": 6650,
      "거": 6651,
      "것": 6652,
      "게": 6653,
      "결": 6654,
      "계": 6655,
      "고": 6656,
      "과": 6657,
      "구": 6658,
      "귀": 6659,
      "규": 6660,
      "그": 6661,
      "근": 6662,
      "기": 6663,
      "깔": 6664,
      "꽃": 6665,
      "끼": 6666,
      "나": 6667,
      "날": 6668,
      "남": 6669,
      "내": 6670,
      "냥": 6671,
      "네": 6672,
      "녕": 6673,
      "는": 6674,
      "늘": 6675,
      "니": 6676,
      "다": 6677,
      "달": 6678,
      "당": 6679,
      "대": 6680,
      "도": 6681,
      "동": 6682,
      "되": 6683,
      "된": 6684,
      "됩": 6685,
      "들": 6686,
      "따": 6687,
      "떨": 6688,
      "떻": 6689,
      "라": 6690,
      "란": 6691,
      "로": 6692,
      "른": 6693,
      "를": 6694,
      "리": 6695,
      "린": 6696,
      "마": 6697,
      "만": 6698,
      "말": 6699,
      "매": 6700,
      "머": 6701,
      "먹": 6702,
      "면": 6703,
      "모": 6704,
      "문": 6705,
      "미": 6706,
      "민": 6707,
      "배": 6708,
      "버": 6709,
      "범": 6710,
      "보": 6711,
      "북": 6712,
      "분": 6713,
      "빛": 6714,
      "사": 6715,
      "산": 6716,
      "상": 6717,
      "새": 6718,
      "색": 6719,
      "생": 6720,
      "서": 6721,
      "세": 6722,
      "소": 6723,
      "수": 6724,
      "숙": 6725,
      "스": 6726,
      "슬": 6727,
      "시": 6728,
      "싶": 6729,
      "씨": 6730,
      "아": 6731,
      "안": 6732,
      "않": 6733,
      "암": 6734,
      "았": 6735,
      "앞": 6736,
      "야": 6737,
      "양": 6738,
      "어": 6739,
      "언": 6740,
      "에": 6741,
      "여": 6742,
      "영": 6743,
      "오": 6744,
      "요": 6745,
      "우": 6746,
      "운": 6747,
      "웃": 6748,
      "으": 6749,
      "은": 6750,
      "을": 6751,
      "음": 6752,
      "의": 6753,
      "이": 6754,
      "일": 6755,
      "입": 6756,
      "잎": 6757,
      "자": 6758,
      "작": 6759,
      "장": 6760,
      "잿": 6761,
      "저": 6762,
      "절": 6763,
      "점": 6764,
      "정": 6765,
      "제": 6766,
      "좀": 6767,
      "좋": 6768,
      "증": 6769,
      "지": 6770,
      "직": 6771,
      "진": 6772,
      "책": 6773,
      "침": 6774,
      "테": 6775,
      "토": 6776,
      "트": 6777,
      "파": 6778,
      "판": 6779,
      "픈": 6780,
      "피": 6781,
      "하": 6782,
      "한": 6783,
      "합": 6784,
      "행": 6785,
      "향": 6786,
      "호": 6787,
      "히": 6788,
      "": 6789,
      "️": 6790,
      "︵": 6791,
      "﻿": 6792,
      "！": 6793,
      "＃": 6794,
      "％": 6795,
      "＆": 6796,
      "（": 6797,
      "）": 6798,
      "＊": 6799,
      "＋": 6800,
      "，": 6801,
      "－": 6802,
      "／": 6803,
      "０": 6804,
      "１": 6805,
      "２": 6806,
      "３": 6807,
      "４": 6808,
      "５": 6809,
      "６": 6810,
      "８": 6811,
      "：": 6812,
      "；": 6813,
      "＜": 6814,
      "＝": 6815,
      "＞": 6816,
      "？": 6817,
      "Ａ": 6818,
      "Ｄ": 6819,
      "Ｇ": 6820,
      "Ｈ": 6821,
      "Ｌ": 6822,
      "Ｎ": 6823,
      "Ｏ": 6824,
      "Ｕ": 6825,
      "Ｘ": 6826,
      "Ｙ": 6827,
      "＾": 6828,
      "｜": 6829,
      "～": 6830,
      "ﾉ": 6831,
      "￥": 6832,
      "￼": 6833,
      "�": 6834,
      "𝑥": 6835,
      "𝜋": 6836,
      "𝟐": 6837,
      "🇨": 6838,
      "🇳": 6839,
      "🌄": 6840,
      "🌅": 6841,
      "🌈": 6842,
      "🌊": 6843,
      "🌍": 6844,
      "🌕": 6845,
      "🌞": 6846,
      "🌟": 6847,
      "🌤": 6848,
      "🌧": 6849,
      "🌫": 6850,
      "🌬": 6851,
      "🌱": 6852,
      "🌲": 6853,
      "🌳": 6854,
      "🌴": 6855,
      "🌷": 6856,
      "🌸": 6857,
      "🌹": 6858,
      "🌺": 6859,
      "🌻": 6860,
      "🌼": 6861,
      "🌽": 6862,
      "🌾": 6863,
      "🌿": 6864,
      "🍀": 6865,
      "🍁": 6866,
      "🍂": 6867,
      "🍃": 6868,
      "🍅": 6869,
      "🍇": 6870,
      "🍉": 6871,
      "🍌": 6872,
      "🍎": 6873,
      "🍓": 6874,
      "🍔": 6875,
      "🍕": 6876,
      "🍛": 6877,
      "🍜": 6878,
      "🍞": 6879,
      "🍟": 6880,
      "🍡": 6881,
      "🍢": 6882,
      "🍤": 6883,
      "🍦": 6884,
      "🍧": 6885,
      "🍨": 6886,
      "🍩": 6887,
      "🍪": 6888,
      "🍫": 6889,
      "🍬": 6890,
      "🍭": 6891,
      "🍰": 6892,
      "🍱": 6893,
      "🍲": 6894,
      "🍳": 6895,
      "🍴": 6896,
      "🍹": 6897,
      "🍻": 6898,
      "🍼": 6899,
      "🍽": 6900,
      "🎀": 6901,
      "🎁": 6902,
      "🎂": 6903,
      "🎆": 6904,
      "🎈": 6905,
      "🎉": 6906,
      "🎊": 6907,
      "🎋": 6908,
      "🎓": 6909,
      "🎢": 6910,
      "🎤": 6911,
      "🎥": 6912,
      "🎨": 6913,
      "🎬": 6914,
      "🎵": 6915,
      "🎶": 6916,
      "🎸": 6917,
      "🎹": 6918,
      "🎼": 6919,
      "🎾": 6920,
      "🏀": 6921,
      "🏃": 6922,
      "🏆": 6923,
      "🏊": 6924,
      "🏋": 6925,
      "🏐": 6926,
      "🏔": 6927,
      "🏕": 6928,
      "🏖": 6929,
      "🏞": 6930,
      "🏠": 6931,
      "🏡": 6932,
      "🏫": 6933,
      "🏯": 6934,
      "🏻": 6935,
      "🏼": 6936,
      "🐆": 6937,
      "🐇": 6938,
      "🐉": 6939,
      "🐋": 6940,
      "🐍": 6941,
      "🐎": 6942,
      "🐕": 6943,
      "🐗": 6944,
      "🐘": 6945,
      "🐜": 6946,
      "🐝": 6947,
      "🐟": 6948,
      "🐦": 6949,
      "🐯": 6950,
      "🐰": 6951,
      "🐱": 6952,
      "🐲": 6953,
      "🐴": 6954,
      "🐶": 6955,
      "🐸": 6956,
      "🐻": 6957,
      "🐼": 6958,
      "🐾": 6959,
      "🐿": 6960,
      "👀": 6961,
      "👂": 6962,
      "👃": 6963,
      "👅": 6964,
      "👋": 6965,
      "👌": 6966,
      "👍": 6967,
      "👏": 6968,
      "👕": 6969,
      "👗": 6970,
      "👥": 6971,
      "👦": 6972,
      "👧": 6973,
      "👨": 6974,
      "👩": 6975,
      "👫": 6976,
      "👰": 6977,
      "👴": 6978,
      "👵": 6979,
      "👶": 6980,
      "👷": 6981,
      "👸": 6982,
      "👿": 6983,
      "💃": 6984,
      "💌": 6985,
      "💍": 6986,
      "💐": 6987,
      "💕": 6988,
      "💖": 6989,
      "💙": 6990,
      "💚": 6991,
      "💢": 6992,
      "💤": 6993,
      "💥": 6994,
      "💦": 6995,
      "💧": 6996,
      "💨": 6997,
      "💪": 6998,
      "💫": 6999,
      "💬": 7000,
      "💭": 7001,
      "💯": 7002,
      "💻": 7003,
      "💼": 7004,
      "📓": 7005,
      "📖": 7006,
      "📚": 7007,
      "📸": 7008,
      "📹": 7009,
      "📺": 7010,
      "🔌": 7011,
      "🔍": 7012,
      "🔥": 7013,
      "🔬": 7014,
      "🕵": 7015,
      "🕺": 7016,
      "🖥": 7017,
      "🗼": 7018,
      "😀": 7019,
      "😁": 7020,
      "😂": 7021,
      "😃": 7022,
      "😄": 7023,
      "😅": 7024,
      "😆": 7025,
      "😉": 7026,
      "😊": 7027,
      "😋": 7028,
      "😌": 7029,
      "😍": 7030,
      "😎": 7031,
      "😐": 7032,
      "😓": 7033,
      "😔": 7034,
      "😕": 7035,
      "😘": 7036,
      "😜": 7037,
      "😝": 7038,
      "😞": 7039,
      "😟": 7040,
      "😠": 7041,
      "😡": 7042,
      "😢": 7043,
      "😥": 7044,
      "😨": 7045,
      "😩": 7046,
      "😫": 7047,
      "😭": 7048,
      "😯": 7049,
      "😰": 7050,
      "😱": 7051,
      "😲": 7052,
      "😳": 7053,
      "😷": 7054,
      "😻": 7055,
      "🙀": 7056,
      "🙂": 7057,
      "🙄": 7058,
      "🙈": 7059,
      "🙊": 7060,
      "🙏": 7061,
      "🚀": 7062,
      "🚇": 7063,
      "🚕": 7064,
      "🚬": 7065,
      "🚲": 7066,
      "🚴": 7067,
      "🚶": 7068,
      "🛌": 7069,
      "🛍": 7070,
      "🤔": 7071,
      "🤗": 7072,
      "🤚": 7073,
      "🤝": 7074,
      "🤣": 7075,
      "🤤": 7076,
      "🤪": 7077,
      "🤬": 7078,
      "🤯": 7079,
      "🤵": 7080,
      "🥒": 7081,
      "🥓": 7082,
      "🥚": 7083,
      "🥛": 7084,
      "🥞": 7085,
      "🥢": 7086,
      "🥤": 7087,
      "🥦": 7088,
      "🥬": 7089,
      "🥮": 7090,
      "🥰": 7091,
      "🥳": 7092,
      "🥾": 7093,
      "🦁": 7094,
      "🦆": 7095,
      "🦋": 7096,
      "🦔": 7097,
      "🦜": 7098,
      "🦝": 7099,
      "🧀": 7100,
      "🧊": 7101,
      "🧑": 7102,
      "🧗": 7103,
      "🧘": 7104,
      "🧥": 7105,
      "🧴": 7106,
      "🧸": 7107,
      "🧻": 7108,
      "🧼": 7109,
      "🪐": 7110,
      "可以": 7111,
      "一个": 7112,
      "需要": 7113,
      "我们": 7114,
      "。\n": 7115,
      "好的": 7116,
      "这个": 7117,
      "问题": 7118,
      "00": 7119,
      "如果": 7120,
      "一些": 7121,
      "，我": 7122,
      "以下": 7123,
      "使用": 7124,
      "，并": 7125,
      "提供": 7126,
      "。这": 7127,
      "根据": 7128,
      "非常": 7129,
      "▁=": 7130,
      "进行": 7131,
      "是一": 7132,
      "什么": 7133,
      "。好的": 7134,
      "，这": 7135,
      "in": 7136,
      "中，": 7137,
      "因此": 7138,
      "文本": 7139,
      "中的": 7140,
      "句子": 7141,
      "，可以": 7142,
      "1.": 7143,
      "计算": 7144,
      "它们": 7145,
      "智能": 7146,
      "2.": 7147,
      "选择": 7148,
      "吗？": 7149,
      "可能": 7150,
      "。在": 7151,
      "自己": 7152,
      "不同": 7153,
      "描述": 7154,
      "。好的，": 7155,
      "生成": 7156,
      "3.": 7157,
      "信息": 7158,
      "，但": 7159,
      "10": 7160,
      "时，": 7161,
      "on": 7162,
      "喜欢": 7163,
      "一下": 7164,
      "通过": 7165,
      "，以": 7166,
      "那么": 7167,
      "an": 7168,
      "等。": 7169,
      "包括": 7170,
      "20": 7171,
      "数据": 7172,
      "文章": 7173,
      "因为": 7174,
      "▁|": 7175,
      "回答": 7176,
      "th": 7177,
      "电影": 7178,
      "给我": 7179,
      "er": 7180,
      "是一个": 7181,
      "关于": 7182,
      "他们": 7183,
      "现在": 7184,
      "``": 7185,
      "其他": 7186,
      "自然": 7187,
      "人工": 7188,
      "。请": 7189,
      "推荐": 7190,
      "例如": 7191,
      "▁1": 7192,
      "人工智能": 7193,
      "帮助": 7194,
      "，你": 7195,
      "动物": 7196,
      "，而": 7197,
      "建议": 7198,
      "如何": 7199,
      "，我们": 7200,
      "没有": 7201,
      "能够": 7202,
      "或者": 7203,
      "两个": 7204,
      "。如果": 7205,
      "，让": 7206,
      "外，": 7207,
      "分类": 7208,
      "当然": 7209,
      "技术": 7210,
      "or": 7211,
      "翻译": 7212,
      "重要": 7213,
      "告诉": 7214,
      "4.": 7215,
      "世界": 7216,
      "故事": 7217,
      "语言": 7218,
      "情感": 7219,
      "。我": 7220,
      "，它": 7221,
      "▁-": 7222,
      "给定": 7223,
      "你的": 7224,
      "应用": 7225,
      "人们": 7226,
      "自己的": 7227,
      "因此，": 7228,
      "更加": 7229,
      "影响": 7230,
      "之间": 7231,
      "re": 7232,
      "：\n": 7233,
      "方式": 7234,
      "这些": 7235,
      "应该": 7236,
      "is": 7237,
      "主题": 7238,
      "天气": 7239,
      "告诉我": 7240,
      "▁2": 7241,
      "发展": 7242,
      "具体": 7243,
      "一篇": 7244,
      "学习": 7245,
      "▁a": 7246,
      "音乐": 7247,
      "en": 7248,
      "方法": 7249,
      "适合": 7250,
      "之一": 7251,
      "单词": 7252,
      "到了": 7253,
      "城市": 7254,
      "一种": 7255,
      "，如": 7256,
      "面的": 7257,
      "5.": 7258,
      "然后": 7259,
      "太阳": 7260,
      "呢？": 7261,
      "环境": 7262,
      "每个": 7263,
      "是一种": 7264,
      "at": 7265,
      "，也": 7266,
      "领域": 7267,
      "通常": 7268,
      "人类": 7269,
      "le": 7270,
      "公司": 7271,
      "表达": 7272,
      "。此": 7273,
      "制作": 7274,
      "加入": 7275,
      "人的": 7276,
      "比如": 7277,
      "不同的": 7278,
      "产品": 7279,
      "，请": 7280,
      "您的": 7281,
      "，因为": 7282,
      "多少": 7283,
      "，在": 7284,
      "，例如": 7285,
      "色的": 7286,
      "天的": 7287,
      "未来": 7288,
      "所以": 7289,
      "解释": 7290,
      "情况": 7291,
      "，那么": 7292,
      "▁请": 7293,
      "▁3": 7294,
      "大的": 7295,
      "，\n": 7296,
      "帮我": 7297,
      "▁将": 7298,
      "其中": 7299,
      "是否": 7300,
      "时间": 7301,
      "生活": 7302,
      "小说": 7303,
      "地球": 7304,
      "同时": 7305,
      "更多": 7306,
      "活动": 7307,
      "给出": 7308,
      "新的": 7309,
      "设计": 7310,
      "具有": 7311,
      "对于": 7312,
      "价格": 7313,
      "ar": 7314,
      "ou": 7315,
      "结果": 7316,
      "st": 7317,
      "服务": 7318,
      "提高": 7319,
      "注意": 7320,
      "关系": 7321,
      "主要": 7322,
      "中国": 7323,
      "▁+": 7324,
      "您可以": 7325,
      "代码": 7326,
      "咖啡": 7327,
      "的。": 7328,
      "内容": 7329,
      "▁\"": 7330,
      "，将": 7331,
      "一起": 7332,
      "一首": 7333,
      "还有": 7334,
      "问题。": 7335,
      "过程": 7336,
      "▁根据": 7337,
      "所有": 7338,
      "无法": 7339,
      "解决": 7340,
      "最后": 7341,
      "许多": 7342,
      "知道": 7343,
      "um": 7344,
      "得到": 7345,
      "。此外，": 7346,
      "分析": 7347,
      "游戏": 7348,
      "诗歌": 7349,
      "文化": 7350,
      "很多": 7351,
      "已经": 7352,
      "▁b": 7353,
      "：1.": 7354,
      "句话": 7355,
      "一份": 7356,
      "上的": 7357,
      "```": 7358,
      "，包括": 7359,
      "机器": 7360,
      "的人": 7361,
      "首先": 7362,
      "了解": 7363,
      "希望": 7364,
      "，不": 7365,
      "生命": 7366,
      "成为": 7367,
      "餐厅": 7368,
      "方面": 7369,
      "，因此": 7370,
      "为您": 7371,
      "。它": 7372,
      "历史": 7373,
      "的是": 7374,
      "开始": 7375,
      "，他": 7376,
      "▁5": 7377,
      "答案": 7378,
      "程序": 7379,
      "000": 7380,
      "简单": 7381,
      "输入": 7382,
      "--": 7383,
      "：“": 7384,
      "，有": 7385,
      "t(": 7386,
      "质量": 7387,
      "感受": 7388,
      "，然后": 7389,
      "考虑": 7390,
      "我的": 7391,
      "作为": 7392,
      "美丽": 7393,
      "。你": 7394,
      "▁t": 7395,
      "。因此，": 7396,
      "系统": 7397,
      "数字": 7398,
      "▁s": 7399,
      "处理": 7400,
      "颜色": 7401,
      "之间的": 7402,
      "都是": 7403,
      "保持": 7404,
      "yth": 7405,
      "相关": 7406,
      "变化": 7407,
      "介绍": 7408,
      "ython": 7409,
      "生成一个": 7410,
      "el": 7411,
      "健康": 7412,
      "我们的": 7413,
      "▁c": 7414,
      "一段": 7415,
      "关键": 7416,
      "用户": 7417,
      "给定的": 7418,
      "社会": 7419,
      "各种": 7420,
      "实现": 7421,
      "安全": 7422,
      "带来": 7423,
      "是什么": 7424,
      "，比如": 7425,
      "列表": 7426,
      "表示": 7427,
      "个人": 7428,
      "类型": 7429,
      "当然可以": 7430,
      "购买": 7431,
      "写一篇": 7432,
      "品牌": 7433,
      "。”": 7434,
      "想要": 7435,
      "用于": 7436,
      "发现": 7437,
      "感到": 7438,
      "爱情": 7439,
      "尝试": 7440,
      "\\n": 7441,
      "比较": 7442,
      "科技": 7443,
      "找到": 7444,
      "输出": 7445,
      "身体": 7446,
      "。这个": 7447,
      "请你": 7448,
      "任何": 7449,
      "阳光": 7450,
      "▁d": 7451,
      "50": 7452,
      "运动": 7453,
      "详细": 7454,
      "朋友": 7455,
      "ing": 7456,
      "存在": 7457,
      "，如果": 7458,
      "要求": 7459,
      "食物": 7460,
      "不是": 7461,
      "包含": 7462,
      "es": 7463,
      "。这些": 7464,
      "能力": 7465,
      "正确": 7466,
      "植物": 7467,
      "任务": 7468,
      "数量": 7469,
      "最近": 7470,
      "的地": 7471,
      "科学": 7472,
      "，从": 7473,
      "产生": 7474,
      "作品": 7475,
      "模型": 7476,
      "不能": 7477,
      "▁m": 7478,
      "▁\n": 7479,
      "起来": 7480,
      "有趣": 7481,
      "同时，": 7482,
      "材料": 7483,
      "，同时": 7484,
      "▁p": 7485,
      "▁f": 7486,
      "100": 7487,
      "以下是": 7488,
      "艺术": 7489,
      "。2.": 7490,
      "了一": 7491,
      "▁th": 7492,
      "等等。": 7493,
      "函数": 7494,
      "就是": 7495,
      "al": 7496,
      "AI": 7497,
      "理解": 7498,
      "▁4": 7499,
      "行为": 7500,
      "，即": 7501,
      "医疗": 7502,
      "需求": 7503,
      "他的": 7504,
      "，是": 7505,
      "认为": 7506,
      "保护": 7507,
      "工作": 7508,
      "翻译成": 7509,
      "三个": 7510,
      "上，": 7511,
      "中文": 7512,
      "it": 7513,
      "元素": 7514,
      "，但是": 7515,
      "今天": 7516,
      "作用": 7517,
      "。当": 7518,
      "导致": 7519,
      "lo": 7520,
      "美国": 7521,
      "歌曲": 7522,
      "，需要": 7523,
      "▁w": 7524,
      "增加": 7525,
      "英文": 7526,
      "确定": 7527,
      "6.": 7528,
      "它们的": 7529,
      "享受": 7530,
      "的信息": 7531,
      "可能会": 7532,
      "按照": 7533,
      "哪些": 7534,
      "完成": 7535,
      "面积": 7536,
      "它的": 7537,
      "温度": 7538,
      "om": 7539,
      "12": 7540,
      "充满": 7541,
      "▁n": 7542,
      "出现": 7543,
      "表现": 7544,
      "以及": 7545,
      "，并且": 7546,
      "。但": 7547,
      "更好": 7548,
      "。3.": 7549,
      "研究": 7550,
      "▁(": 7551,
      "，所以": 7552,
      "减少": 7553,
      "不断": 7554,
      "一只": 7555,
      "著名": 7556,
      "Python": 7557,
      "，最": 7558,
      "▁在": 7559,
      "旅游": 7560,
      "分钟": 7561,
      "还是": 7562,
      "确保": 7563,
      "，其中": 7564,
      "30": 7565,
      "ic": 7566,
      "才能": 7567,
      "准备": 7568,
      "。那么": 7569,
      "风格": 7570,
      "生物": 7571,
      "比赛": 7572,
      "积极": 7573,
      "名字": 7574,
      "全球": 7575,
      "名称": 7576,
      "来说": 7577,
      "场景": 7578,
      "步骤": 7579,
      "怎么": 7580,
      "15": 7581,
      "__": 7582,
      "旅行": 7583,
      "了一个": 7584,
      "体验": 7585,
      "的一": 7586,
      "行星": 7587,
      "样的": 7588,
      "我想": 7589,
      "家庭": 7590,
      "创作": 7591,
      "属于": 7592,
      "数学": 7593,
      "，我可以": 7594,
      "部分": 7595,
      "的意": 7596,
      "获得": 7597,
      "，使": 7598,
      "量的": 7599,
      "计算机": 7600,
      "19": 7601,
      "定的": 7602,
      "大利": 7603,
      "平均": 7604,
      "美食": 7605,
      "▁为": 7606,
      "口感": 7607,
      "更好地": 7608,
      "功能": 7609,
      "广泛": 7610,
      "字符": 7611,
      "由于": 7612,
      "位置": 7613,
      "也可以": 7614,
      "代表": 7615,
      "的，": 7616,
      "新闻": 7617,
      "特点": 7618,
      "，一": 7619,
      "有关": 7620,
      "还可以": 7621,
      "即可": 7622,
      "int(": 7623,
      "，我们可以": 7624,
      "发生": 7625,
      "独特": 7626,
      "季节": 7627,
      "拥有": 7628,
      "性的": 7629,
      "谢谢": 7630,
      "感觉": 7631,
      "他们的": 7632,
      "pr": 7633,
      "，以及": 7634,
      "特征": 7635,
      "牛奶": 7636,
      "。同时，": 7637,
      "为“": 7638,
      "准确": 7639,
      "变得": 7640,
      "。那": 7641,
      "好，": 7642,
      "的影响": 7643,
      "作者": 7644,
      "题目": 7645,
      "现代": 7646,
      "and": 7647,
      "字母": 7648,
      "避免": 7649,
      "更多的": 7650,
      "形成": 7651,
      "工具": 7652,
      "支持": 7653,
      "第二": 7654,
      "公式": 7655,
      "能否": 7656,
      "速度": 7657,
      "选项": 7658,
      "性和": 7659,
      "物质": 7660,
      "ra": 7661,
      "长度": 7662,
      "几个": 7663,
      "，这些": 7664,
      "。如果你": 7665,
      "口味": 7666,
      "交通": 7667,
      "。如果您": 7668,
      "整个": 7669,
      "价值": 7670,
      "▁6": 7671,
      "经典": 7672,
      "创造": 7673,
      "下来": 7674,
      "算法": 7675,
      "公园": 7676,
      "舒适": 7677,
      "7.": 7678,
      "传统": 7679,
      "商品": 7680,
      "文学": 7681,
      "判断": 7682,
      "结构": 7683,
      "建筑": 7684,
      "自由": 7685,
      "高的": 7686,
      "编写": 7687,
      "ed": 7688,
      "\n-": 7689,
      "，你可以": 7690,
      "是指": 7691,
      "挑战": 7692,
      "蔬菜": 7693,
      "了。": 7694,
      "具体的": 7695,
      "”。": 7696,
      "空气": 7697,
      "距离": 7698,
      "气候": 7699,
      "反应": 7700,
      "探索": 7701,
      "知识": 7702,
      "重要的": 7703,
      "物品": 7704,
      "”的": 7705,
      "▁the": 7706,
      "评论": 7707,
      "如下": 7708,
      "正在": 7709,
      "。最后": 7710,
      "▁l": 7711,
      "▁8": 7712,
      "的故事": 7713,
      "看到": 7714,
      "条件": 7715,
      "也是": 7716,
      "目标": 7717,
      "时候": 7718,
      "▁给定": 7719,
      "。1.": 7720,
      "，为": 7721,
      "▁x": 7722,
      "阅读": 7723,
      "排序": 7724,
      "段落": 7725,
      "销售": 7726,
      "子的": 7727,
      "美味": 7728,
      "北京": 7729,
      "as": 7730,
      "，每": 7731,
      "。根据": 7732,
      "丰富": 7733,
      "购物": 7734,
      "寻找": 7735,
      "不错": 7736,
      "是“": 7737,
      "问题：": 7738,
      "、《": 7739,
      "鸡蛋": 7740,
      "里，": 7741,
      "平方": 7742,
      "电子": 7743,
      "是什么？": 7744,
      "日期": 7745,
      "添加": 7746,
      "错误": 7747,
      "▁in": 7748,
      "利用": 7749,
      "欢迎": 7750,
      "▁C": 7751,
      "为：": 7752,
      "202": 7753,
      "。例如": 7754,
      "混合": 7755,
      "天空": 7756,
      "he": 7757,
      "都有": 7758,
      "请问": 7759,
      "这篇": 7760,
      "创意": 7761,
      "0.": 7762,
      "。他": 7763,
      "汽车": 7764,
      "后，": 7765,
      "义词": 7766,
      "8.": 7767,
      "。\"": 7768,
      "字符串": 7769,
      "的情感": 7770,
      "力和": 7771,
      "常见": 7772,
      "巧克": 7773,
      "事件": 7774,
      "关键词": 7775,
      "。另": 7776,
      "是在": 7777,
      "管理": 7778,
      "▁to": 7779,
      "宇宙": 7780,
      "感谢": 7781,
      "，那": 7782,
      "基于": 7783,
      "简单的": 7784,
      "意大利": 7785,
      "提取": 7786,
      "蛋糕": 7787,
      "因素": 7788,
      "。首先": 7789,
      "英语": 7790,
      "第一": 7791,
      "》、《": 7792,
      "思考": 7793,
      "，从而": 7794,
      "▁S": 7795,
      "。好的，我": 7796,
      "这种": 7797,
      "问题，": 7798,
      "中心": 7799,
      "上最": 7800,
      "评价": 7801,
      "print(": 7802,
      "巧克力": 7803,
      "物体": 7804,
      "，它们": 7805,
      "分别": 7806,
      "控制": 7807,
      "吸引": 7808,
      "ge": 7809,
      "吗？当然可以": 7810,
      "的文章": 7811,
      "讲述": 7812,
      "的小": 7813,
      "成功": 7814,
      "ro": 7815,
      "温暖": 7816,
      "下，": 7817,
      "说明": 7818,
      "▁生成一个": 7819,
      "▁y": 7820,
      "不会": 7821,
      "组成": 7822,
      "▁is": 7823,
      "。但是": 7824,
      "网站": 7825,
      "令人": 7826,
      "。总": 7827,
      "美丽的": 7828,
      "网络": 7829,
      "情节": 7830,
      "ac": 7831,
      "后的": 7832,
      "小明": 7833,
      "pp": 7834,
      "自动": 7835,
      "方程": 7836,
      "随着": 7837,
      "披萨": 7838,
      "神秘": 7839,
      "之一。": 7840,
      "手机": 7841,
      "著名的": 7842,
      "有很多": 7843,
      "有趣的": 7844,
      "25": 7845,
      "只有": 7846,
      "”，": 7847,
      "哪个": 7848,
      "▁o": 7849,
      "形式": 7850,
      "喜欢的": 7851,
      "例子": 7852,
      "数的": 7853,
      "的发展": 7854,
      "放入": 7855,
      "▁10": 7856,
      "列出": 7857,
      "食品": 7858,
      "方案": 7859,
      "。请问": 7860,
      "关注": 7861,
      "饮料": 7862,
      "当地": 7863,
      "可以通过": 7864,
      "18": 7865,
      "特别": 7866,
      "是多少": 7867,
      "美好": 7868,
      "不仅": 7869,
      "法律": 7870,
      "味道": 7871,
      "夏天": 7872,
      "。我们": 7873,
      "化学": 7874,
      "▁×": 7875,
      "气温": 7876,
      "。4.": 7877,
      "原因": 7878,
      "▁h": 7879,
      "水果": 7880,
      "技巧": 7881,
      "红色": 7882,
      "▁A": 7883,
      "预测": 7884,
      "，您可以": 7885,
      "。给我": 7886,
      "：\n1.": 7887,
      "类别": 7888,
      "专业": 7889,
      "am": 7890,
      "值得": 7891,
      "机器学习": 7892,
      "▁B": 7893,
      "人生": 7894,
      "以上": 7895,
      "本书": 7896,
      "实际": 7897,
      "事情": 7898,
      "经济": 7899,
      "您需要": 7900,
      "快乐": 7901,
      "▁生成": 7902,
      "。其": 7903,
      "地区": 7904,
      "环保": 7905,
      "有什么": 7906,
      "形的": 7907,
      "有一": 7908,
      "流行": 7909,
      "ver": 7910,
      "这段": 7911,
      "▁7": 7912,
      "基本": 7913,
      "为了": 7914,
      "性。": 7915,
      "现在请你": 7916,
      "的重要": 7917,
      "黑洞": 7918,
      "放松": 7919,
      "1,": 7920,
      "位于": 7921,
      "如果你": 7922,
      "▁将以下": 7923,
      "里的": 7924,
      "可以在": 7925,
      "搜索": 7926,
      "im": 7927,
      "意义": 7928,
      "9.": 7929,
      "生态": 7930,
      "等等": 7931,
      "搅拌": 7932,
      "复杂": 7933,
      "一步": 7934,
      "▁e": 7935,
      "的应用": 7936,
      "均匀": 7937,
      "有一个": 7938,
      "中最": 7939,
      "大小": 7940,
      "哺乳": 7941,
      "改变": 7942,
      "的电影": 7943,
      "相似": 7944,
      "se": 7945,
      "设备": 7946,
      "部电影": 7947,
      "海洋": 7948,
      "操作": 7949,
      "面包": 7950,
      "转换": 7951,
      "，这个": 7952,
      "一组": 7953,
      "兴趣": 7954,
      "。好的，那": 7955,
      "三角": 7956,
      "表格": 7957,
      "满足": 7958,
      "虽然": 7959,
      "状态": 7960,
      "搭配": 7961,
      "小时": 7962,
      "可以帮助": 7963,
      "为什么": 7964,
      "物理": 7965,
      "。\n2.": 7966,
      "客户": 7967,
      "接下来": 7968,
      "il": 7969,
      "最终": 7970,
      "让我": 7971,
      "宠物": 7972,
      "美元": 7973,
      "读者": 7974,
      "等于": 7975,
      "200": 7976,
      "孩子": 7977,
      "持续": 7978,
      "。而": 7979,
      "顺序": 7980,
      "计划": 7981,
      "▁描述": 7982,
      "景点": 7983,
      "的总": 7984,
      "了，": 7985,
      "美的": 7986,
      "对话": 7987,
      "的天气": 7988,
      "蓝色": 7989,
      "。当然": 7990,
      "词语": 7991,
      "符合": 7992,
      "将其": 7993,
      "番茄": 7994,
      "清单": 7995,
      "继续": 7996,
      "独特的": 7997,
      "ent": 7998,
      "效果": 7999
    },
    "merges": [
      [
        "可",
        "以"
      ],
      [
        "一",
        "个"
      ],
      [
        "需",
        "要"
      ],
      [
        "我",
        "们"
      ],
      [
        "。",
        "\n"
      ],
      [
        "好",
        "的"
      ],
      [
        "这",
        "个"
      ],
      [
        "问",
        "题"
      ],
      [
        "0",
        "0"
      ],
      [
        "如",
        "果"
      ],
      [
        "一",
        "些"
      ],
      [
        "，",
        "我"
      ],
      [
        "以",
        "下"
      ],
      [
        "使",
        "用"
      ],
      [
        "，",
        "并"
      ],
      [
        "提",
        "供"
      ],
      [
        "。",
        "这"
      ],
      [
        "根",
        "据"
      ],
      [
        "非",
        "常"
      ],
      [
        "▁",
        "="
      ],
      [
        "进",
        "行"
      ],
      [
        "是",
        "一"
      ],
      [
        "什",
        "么"
      ],
      [
        "。",
        "好的"
      ],
      [
        "，",
        "这"
      ],
      [
        "i",
        "n"
      ],
      [
        "中",
        "，"
      ],
      [
        "因",
        "此"
      ],
      [
        "文",
        "本"
      ],
      [
        "中",
        "的"
      ],
      [
        "句",
        "子"
      ],
      [
        "，",
        "可以"
      ],
      [
        "1",
        "."
      ],
      [
        "计",
        "算"
      ],
      [
        "它",
        "们"
      ],
      [
        "智",
        "能"
      ],
      [
        "2",
        "."
      ],
      [
        "选",
        "择"
      ],
      [
        "吗",
        "？"
      ],
      [
        "可",
        "能"
      ],
      [
        "。",
        "在"
      ],
      [
        "自",
        "己"
      ],
      [
        "不",
        "同"
      ],
      [
        "描",
        "述"
      ],
      [
        "。好的",
        "，"
      ],
      [
        "生",
        "成"
      ],
      [
        "3",
        "."
      ],
      [
        "信",
        "息"
      ],
      [
        "，",
        "但"
      ],
      [
        "1",
        "0"
      ],
      [
        "时",
        "，"
      ],
      [
        "o",
        "n"
      ],
      [
        "喜",
        "欢"
      ],
      [
        "一",
        "下"
      ],
      [
        "通",
        "过"
      ],
      [
        "，",
        "以"
      ],
      [
        "那",
        "么"
      ],
      [
        "a",
        "n"
      ],
      [
        "等",
        "。"
      ],
      [
        "包",
        "括"
      ],
      [
        "2",
        "0"
      ],
      [
        "数",
        "据"
      ],
      [
        "文",
        "章"
      ],
      [
        "因",
        "为"
      ],
      [
        "▁",
        "|"
      ],
      [
        "回",
        "答"
      ],
      [
        "t",
        "h"
      ],
      [
        "电",
        "影"
      ],
      [
        "给",
        "我"
      ],
      [
        "e",
        "r"
      ],
      [
        "是",
        "一个"
      ],
      [
        "关",
        "于"
      ],
      [
        "他",
        "们"
      ],
      [
        "现",
        "在"
      ],
      [
        "`",
        "`"
      ],
      [
        "其",
        "他"
      ],
      [
        "自",
        "然"
      ],
      [
        "人",
        "工"
      ],
      [
        "。",
        "请"
      ],
      [
        "推",
        "荐"
      ],
      [
        "例",
        "如"
      ],
      [
        "▁",
        "1"
      ],
      [
        "人工",
        "智能"
      ],
      [
        "帮",
        "助"
      ],
      [
        "，",
        "你"
      ],
      [
        "动",
        "物"
      ],
      [
        "，",
        "而"
      ],
      [
        "建",
        "议"
      ],
      [
        "如",
        "何"
      ],
      [
        "，",
        "我们"
      ],
      [
        "没",
        "有"
      ],
      [
        "能",
        "够"
      ],
      [
        "或",
        "者"
      ],
      [
        "两",
        "个"
      ],
      [
        "。",
        "如果"
      ],
      [
        "，",
        "让"
      ],
      [
        "外",
        "，"
      ],
      [
        "分",
        "类"
      ],
      [
        "当",
        "然"
      ],
      [
        "技",
        "术"
      ],
      [
        "o",
        "r"
      ],
      [
        "翻",
        "译"
      ],
      [
        "重",
        "要"
      ],
      [
        "告",
        "诉"
      ],
      [
        "4",
        "."
      ],
      [
        "世",
        "界"
      ],
      [
        "故",
        "事"
      ],
      [
        "语",
        "言"
      ],
      [
        "情",
        "感"
      ],
      [
        "。",
        "我"
      ],
      [
        "，",
        "它"
      ],
      [
        "▁",
        "-"
      ],
      [
        "给",
        "定"
      ],
      [
        "你",
        "的"
      ],
      [
        "应",
        "用"
      ],
      [
        "人",
        "们"
      ],
      [
        "自己",
        "的"
      ],
      [
        "因此",
        "，"
      ],
      [
        "更",
        "加"
      ],
      [
        "影",
        "响"
      ],
      [
        "之",
        "间"
      ],
      [
        "r",
        "e"
      ],
      [
        "：",
        "\n"
      ],
      [
        "方",
        "式"
      ],
      [
        "这",
        "些"
      ],
      [
        "应",
        "该"
      ],
      [
        "i",
        "s"
      ],
      [
        "主",
        "题"
      ],
      [
        "天",
        "气"
      ],
      [
        "告诉",
        "我"
      ],
      [
        "▁",
        "2"
      ],
      [
        "发",
        "展"
      ],
      [
        "具",
        "体"
      ],
      [
        "一",
        "篇"
      ],
      [
        "学",
        "习"
      ],
      [
        "▁",
        "a"
      ],
      [
        "音",
        "乐"
      ],
      [
        "e",
        "n"
      ],
      [
        "方",
        "法"
      ],
      [
        "适",
        "合"
      ],
      [
        "之",
        "一"
      ],
      [
        "单",
        "词"
      ],
      [
        "到",
        "了"
      ],
      [
        "城",
        "市"
      ],
      [
        "一",
        "种"
      ],
      [
        "，",
        "如"
      ],
      [
        "面",
        "的"
      ],
      [
        "5",
        "."
      ],
      [
        "然",
        "后"
      ],
      [
        "太",
        "阳"
      ],
      [
        "呢",
        "？"
      ],
      [
        "环",
        "境"
      ],
      [
        "每",
        "个"
      ],
      [
        "是一",
        "种"
      ],
      [
        "a",
        "t"
      ],
      [
        "，",
        "也"
      ],
      [
        "领",
        "域"
      ],
      [
        "通",
        "常"
      ],
      [
        "人",
        "类"
      ],
      [
        "l",
        "e"
      ],
      [
        "公",
        "司"
      ],
      [
        "表",
        "达"
      ],
      [
        "。",
        "此"
      ],
      [
        "制",
        "作"
      ],
      [
        "加",
        "入"
      ],
      [
        "人",
        "的"
      ],
      [
        "比",
        "如"
      ],
      [
        "不同",
        "的"
      ],
      [
        "产",
        "品"
      ],
      [
        "，",
        "请"
      ],
      [
        "您",
        "的"
      ],
      [
        "，",
        "因为"
      ],
      [
        "多",
        "少"
      ],
      [
        "，",
        "在"
      ],
      [
        "，",
        "例如"
      ],
      [
        "色",
        "的"
      ],
      [
        "天",
        "的"
      ],
      [
        "未",
        "来"
      ],
      [
        "所",
        "以"
      ],
      [
        "解",
        "释"
      ],
      [
        "情",
        "况"
      ],
      [
        "，",
        "那么"
      ],
      [
        "▁",
        "请"
      ],
      [
        "▁",
        "3"
      ],
      [
        "大",
        "的"
      ],
      [
        "，",
        "\n"
      ],
      [
        "帮",
        "我"
      ],
      [
        "▁",
        "将"
      ],
      [
        "其",
        "中"
      ],
      [
        "是",
        "否"
      ],
      [
        "时",
        "间"
      ],
      [
        "生",
        "活"
      ],
      [
        "小",
        "说"
      ],
      [
        "地",
        "球"
      ],
      [
        "同",
        "时"
      ],
      [
        "更",
        "多"
      ],
      [
        "活",
        "动"
      ],
      [
        "给",
        "出"
      ],
      [
        "新",
        "的"
      ],
      [
        "设",
        "计"
      ],
      [
        "具",
        "有"
      ],
      [
        "对",
        "于"
      ],
      [
        "价",
        "格"
      ],
      [
        "a",
        "r"
      ],
      [
        "o",
        "u"
      ],
      [
        "结",
        "果"
      ],
      [
        "s",
        "t"
      ],
      [
        "服",
        "务"
      ],
      [
        "提",
        "高"
      ],
      [
        "注",
        "意"
      ],
      [
        "关",
        "系"
      ],
      [
        "主",
        "要"
      ],
      [
        "中",
        "国"
      ],
      [
        "▁",
        "+"
      ],
      [
        "您",
        "可以"
      ],
      [
        "代",
        "码"
      ],
      [
        "咖",
        "啡"
      ],
      [
        "的",
        "。"
      ],
      [
        "内",
        "容"
      ],
      [
        "▁",
        "\""
      ],
      [
        "，",
        "将"
      ],
      [
        "一",
        "起"
      ],
      [
        "一",
        "首"
      ],
      [
        "还",
        "有"
      ],
      [
        "问题",
        "。"
      ],
      [
        "过",
        "程"
      ],
      [
        "▁",
        "根据"
      ],
      [
        "所",
        "有"
      ],
      [
        "无",
        "法"
      ],
      [
        "解",
        "决"
      ],
      [
        "最",
        "后"
      ],
      [
        "许",
        "多"
      ],
      [
        "知",
        "道"
      ],
      [
        "u",
        "m"
      ],
      [
        "得",
        "到"
      ],
      [
        "。此",
        "外，"
      ],
      [
        "分",
        "析"
      ],
      [
        "游",
        "戏"
      ],
      [
        "诗",
        "歌"
      ],
      [
        "文",
        "化"
      ],
      [
        "很",
        "多"
      ],
      [
        "已",
        "经"
      ],
      [
        "▁",
        "b"
      ],
      [
        "：",
        "1."
      ],
      [
        "句",
        "话"
      ],
      [
        "一",
        "份"
      ],
      [
        "上",
        "的"
      ],
      [
        "``",
        "`"
      ],
      [
        "，",
        "包括"
      ],
      [
        "机",
        "器"
      ],
      [
        "的",
        "人"
      ],
      [
        "首",
        "先"
      ],
      [
        "了",
        "解"
      ],
      [
        "希",
        "望"
      ],
      [
        "，",
        "不"
      ],
      [
        "生",
        "命"
      ],
      [
        "成",
        "为"
      ],
      [
        "餐",
        "厅"
      ],
      [
        "方",
        "面"
      ],
      [
        "，",
        "因此"
      ],
      [
        "为",
        "您"
      ],
      [
        "。",
        "它"
      ],
      [
        "历",
        "史"
      ],
      [
        "的",
        "是"
      ],
      [
        "开",
        "始"
      ],
      [
        "，",
        "他"
      ],
      [
        "▁",
        "5"
      ],
      [
        "答",
        "案"
      ],
      [
        "程",
        "序"
      ],
      [
        "00",
        "0"
      ],
      [
        "简",
        "单"
      ],
      [
        "输",
        "入"
      ],
      [
        "-",
        "-"
      ],
      [
        "：",
        "“"
      ],
      [
        "，",
        "有"
      ],
      [
        "t",
        "("
      ],
      [
        "质",
        "量"
      ],
      [
        "感",
        "受"
      ],
      [
        "，",
        "然后"
      ],
      [
        "考",
        "虑"
      ],
      [
        "我",
        "的"
      ],
      [
        "作",
        "为"
      ],
      [
        "美",
        "丽"
      ],
      [
        "。",
        "你"
      ],
      [
        "▁",
        "t"
      ],
      [
        "。",
        "因此，"
      ],
      [
        "系",
        "统"
      ],
      [
        "数",
        "字"
      ],
      [
        "▁",
        "s"
      ],
      [
        "处",
        "理"
      ],
      [
        "颜",
        "色"
      ],
      [
        "之间",
        "的"
      ],
      [
        "都",
        "是"
      ],
      [
        "保",
        "持"
      ],
      [
        "y",
        "th"
      ],
      [
        "相",
        "关"
      ],
      [
        "变",
        "化"
      ],
      [
        "介",
        "绍"
      ],
      [
        "yth",
        "on"
      ],
      [
        "生成",
        "一个"
      ],
      [
        "e",
        "l"
      ],
      [
        "健",
        "康"
      ],
      [
        "我们",
        "的"
      ],
      [
        "▁",
        "c"
      ],
      [
        "一",
        "段"
      ],
      [
        "关",
        "键"
      ],
      [
        "用",
        "户"
      ],
      [
        "给定",
        "的"
      ],
      [
        "社",
        "会"
      ],
      [
        "各",
        "种"
      ],
      [
        "实",
        "现"
      ],
      [
        "安",
        "全"
      ],
      [
        "带",
        "来"
      ],
      [
        "是",
        "什么"
      ],
      [
        "，",
        "比如"
      ],
      [
        "列",
        "表"
      ],
      [
        "表",
        "示"
      ],
      [
        "个",
        "人"
      ],
      [
        "类",
        "型"
      ],
      [
        "当然",
        "可以"
      ],
      [
        "购",
        "买"
      ],
      [
        "写",
        "一篇"
      ],
      [
        "品",
        "牌"
      ],
      [
        "。",
        "”"
      ],
      [
        "想",
        "要"
      ],
      [
        "用",
        "于"
      ],
      [
        "发",
        "现"
      ],
      [
        "感",
        "到"
      ],
      [
        "爱",
        "情"
      ],
      [
        "尝",
        "试"
      ],
      [
        "\\",
        "n"
      ],
      [
        "比",
        "较"
      ],
      [
        "科",
        "技"
      ],
      [
        "找",
        "到"
      ],
      [
        "输",
        "出"
      ],
      [
        "身",
        "体"
      ],
      [
        "。",
        "这个"
      ],
      [
        "请",
        "你"
      ],
      [
        "任",
        "何"
      ],
      [
        "阳",
        "光"
      ],
      [
        "▁",
        "d"
      ],
      [
        "5",
        "0"
      ],
      [
        "运",
        "动"
      ],
      [
        "详",
        "细"
      ],
      [
        "朋",
        "友"
      ],
      [
        "in",
        "g"
      ],
      [
        "存",
        "在"
      ],
      [
        "，",
        "如果"
      ],
      [
        "要",
        "求"
      ],
      [
        "食",
        "物"
      ],
      [
        "不",
        "是"
      ],
      [
        "包",
        "含"
      ],
      [
        "e",
        "s"
      ],
      [
        "。这",
        "些"
      ],
      [
        "能",
        "力"
      ],
      [
        "正",
        "确"
      ],
      [
        "植",
        "物"
      ],
      [
        "任",
        "务"
      ],
      [
        "数",
        "量"
      ],
      [
        "最",
        "近"
      ],
      [
        "的",
        "地"
      ],
      [
        "科",
        "学"
      ],
      [
        "，",
        "从"
      ],
      [
        "产",
        "生"
      ],
      [
        "作",
        "品"
      ],
      [
        "模",
        "型"
      ],
      [
        "不",
        "能"
      ],
      [
        "▁",
        "m"
      ],
      [
        "▁",
        "\n"
      ],
      [
        "起",
        "来"
      ],
      [
        "有",
        "趣"
      ],
      [
        "同",
        "时，"
      ],
      [
        "材",
        "料"
      ],
      [
        "，",
        "同时"
      ],
      [
        "▁",
        "p"
      ],
      [
        "▁",
        "f"
      ],
      [
        "1",
        "00"
      ],
      [
        "以下",
        "是"
      ],
      [
        "艺",
        "术"
      ],
      [
        "。",
        "2."
      ],
      [
        "了",
        "一"
      ],
      [
        "▁",
        "th"
      ],
      [
        "等",
        "等。"
      ],
      [
        "函",
        "数"
      ],
      [
        "就",
        "是"
      ],
      [
        "a",
        "l"
      ],
      [
        "A",
        "I"
      ],
      [
        "理",
        "解"
      ],
      [
        "▁",
        "4"
      ],
      [
        "行",
        "为"
      ],
      [
        "，",
        "即"
      ],
      [
        "医",
        "疗"
      ],
      [
        "需",
        "求"
      ],
      [
        "他",
        "的"
      ],
      [
        "，",
        "是"
      ],
      [
        "认",
        "为"
      ],
      [
        "保",
        "护"
      ],
      [
        "工",
        "作"
      ],
      [
        "翻译",
        "成"
      ],
      [
        "三",
        "个"
      ],
      [
        "上",
        "，"
      ],
      [
        "中",
        "文"
      ],
      [
        "i",
        "t"
      ],
      [
        "元",
        "素"
      ],
      [
        "，但",
        "是"
      ],
      [
        "今",
        "天"
      ],
      [
        "作",
        "用"
      ],
      [
        "。",
        "当"
      ],
      [
        "导",
        "致"
      ],
      [
        "l",
        "o"
      ],
      [
        "美",
        "国"
      ],
      [
        "歌",
        "曲"
      ],
      [
        "，",
        "需要"
      ],
      [
        "▁",
        "w"
      ],
      [
        "增",
        "加"
      ],
      [
        "英",
        "文"
      ],
      [
        "确",
        "定"
      ],
      [
        "6",
        "."
      ],
      [
        "它们",
        "的"
      ],
      [
        "享",
        "受"
      ],
      [
        "的",
        "信息"
      ],
      [
        "可能",
        "会"
      ],
      [
        "按",
        "照"
      ],
      [
        "哪",
        "些"
      ],
      [
        "完",
        "成"
      ],
      [
        "面",
        "积"
      ],
      [
        "它",
        "的"
      ],
      [
        "温",
        "度"
      ],
      [
        "o",
        "m"
      ],
      [
        "1",
        "2"
      ],
      [
        "充",
        "满"
      ],
      [
        "▁",
        "n"
      ],
      [
        "出",
        "现"
      ],
      [
        "表",
        "现"
      ],
      [
        "以",
        "及"
      ],
      [
        "，并",
        "且"
      ],
      [
        "。",
        "但"
      ],
      [
        "更",
        "好"
      ],
      [
        "。",
        "3."
      ],
      [
        "研",
        "究"
      ],
      [
        "▁",
        "("
      ],
      [
        "，",
        "所以"
      ],
      [
        "减",
        "少"
      ],
      [
        "不",
        "断"
      ],
      [
        "一",
        "只"
      ],
      [
        "著",
        "名"
      ],
      [
        "P",
        "ython"
      ],
      [
        "，",
        "最"
      ],
      [
        "▁",
        "在"
      ],
      [
        "旅",
        "游"
      ],
      [
        "分",
        "钟"
      ],
      [
        "还",
        "是"
      ],
      [
        "确",
        "保"
      ],
      [
        "，",
        "其中"
      ],
      [
        "3",
        "0"
      ],
      [
        "i",
        "c"
      ],
      [
        "才",
        "能"
      ],
      [
        "准",
        "备"
      ],
      [
        "。",
        "那么"
      ],
      [
        "风",
        "格"
      ],
      [
        "生",
        "物"
      ],
      [
        "比",
        "赛"
      ],
      [
        "积",
        "极"
      ],
      [
        "名",
        "字"
      ],
      [
        "全",
        "球"
      ],
      [
        "名",
        "称"
      ],
      [
        "来",
        "说"
      ],
      [
        "场",
        "景"
      ],
      [
        "步",
        "骤"
      ],
      [
        "怎",
        "么"
      ],
      [
        "1",
        "5"
      ],
      [
        "_",
        "_"
      ],
      [
        "旅",
        "行"
      ],
      [
        "了",
        "一个"
      ],
      [
        "体",
        "验"
      ],
      [
        "的",
        "一"
      ],
      [
        "行",
        "星"
      ],
      [
        "样",
        "的"
      ],
      [
        "我",
        "想"
      ],
      [
        "家",
        "庭"
      ],
      [
        "创",
        "作"
      ],
      [
        "属",
        "于"
      ],
      [
        "数",
        "学"
      ],
      [
        "，我",
        "可以"
      ],
      [
        "部",
        "分"
      ],
      [
        "的",
        "意"
      ],
      [
        "获",
        "得"
      ],
      [
        "，",
        "使"
      ],
      [
        "量",
        "的"
      ],
      [
        "计算",
        "机"
      ],
      [
        "1",
        "9"
      ],
      [
        "定",
        "的"
      ],
      [
        "大",
        "利"
      ],
      [
        "平",
        "均"
      ],
      [
        "美",
        "食"
      ],
      [
        "▁",
        "为"
      ],
      [
        "口",
        "感"
      ],
      [
        "更好",
        "地"
      ],
      [
        "功",
        "能"
      ],
      [
        "广",
        "泛"
      ],
      [
        "字",
        "符"
      ],
      [
        "由",
        "于"
      ],
      [
        "位",
        "置"
      ],
      [
        "也",
        "可以"
      ],
      [
        "代",
        "表"
      ],
      [
        "的",
        "，"
      ],
      [
        "新",
        "闻"
      ],
      [
        "特",
        "点"
      ],
      [
        "，",
        "一"
      ],
      [
        "有",
        "关"
      ],
      [
        "还",
        "可以"
      ],
      [
        "即",
        "可"
      ],
      [
        "in",
        "t("
      ],
      [
        "，我们",
        "可以"
      ],
      [
        "发",
        "生"
      ],
      [
        "独",
        "特"
      ],
      [
        "季",
        "节"
      ],
      [
        "拥",
        "有"
      ],
      [
        "性",
        "的"
      ],
      [
        "谢",
        "谢"
      ],
      [
        "感",
        "觉"
      ],
      [
        "他们",
        "的"
      ],
      [
        "p",
        "r"
      ],
      [
        "，以",
        "及"
      ],
      [
        "特",
        "征"
      ],
      [
        "牛",
        "奶"
      ],
      [
        "。",
        "同时，"
      ],
      [
        "为",
        "“"
      ],
      [
        "准",
        "确"
      ],
      [
        "变",
        "得"
      ],
      [
        "。",
        "那"
      ],
      [
        "好",
        "，"
      ],
      [
        "的",
        "影响"
      ],
      [
        "作",
        "者"
      ],
      [
        "题",
        "目"
      ],
      [
        "现",
        "代"
      ],
      [
        "an",
        "d"
      ],
      [
        "字",
        "母"
      ],
      [
        "避",
        "免"
      ],
      [
        "更多",
        "的"
      ],
      [
        "形",
        "成"
      ],
      [
        "工",
        "具"
      ],
      [
        "支",
        "持"
      ],
      [
        "第",
        "二"
      ],
      [
        "公",
        "式"
      ],
      [
        "能",
        "否"
      ],
      [
        "速",
        "度"
      ],
      [
        "选",
        "项"
      ],
      [
        "性",
        "和"
      ],
      [
        "物",
        "质"
      ],
      [
        "r",
        "a"
      ],
      [
        "长",
        "度"
      ],
      [
        "几",
        "个"
      ],
      [
        "，这",
        "些"
      ],
      [
        "。如果",
        "你"
      ],
      [
        "口",
        "味"
      ],
      [
        "交",
        "通"
      ],
      [
        "。如果",
        "您"
      ],
      [
        "整",
        "个"
      ],
      [
        "价",
        "值"
      ],
      [
        "▁",
        "6"
      ],
      [
        "经",
        "典"
      ],
      [
        "创",
        "造"
      ],
      [
        "下",
        "来"
      ],
      [
        "算",
        "法"
      ],
      [
        "公",
        "园"
      ],
      [
        "舒",
        "适"
      ],
      [
        "7",
        "."
      ],
      [
        "传",
        "统"
      ],
      [
        "商",
        "品"
      ],
      [
        "文",
        "学"
      ],
      [
        "判",
        "断"
      ],
      [
        "结",
        "构"
      ],
      [
        "建",
        "筑"
      ],
      [
        "自",
        "由"
      ],
      [
        "高",
        "的"
      ],
      [
        "编",
        "写"
      ],
      [
        "e",
        "d"
      ],
      [
        "\n",
        "-"
      ],
      [
        "，你",
        "可以"
      ],
      [
        "是",
        "指"
      ],
      [
        "挑",
        "战"
      ],
      [
        "蔬",
        "菜"
      ],
      [
        "了",
        "。"
      ],
      [
        "具体",
        "的"
      ],
      [
        "”",
        "。"
      ],
      [
        "空",
        "气"
      ],
      [
        "距",
        "离"
      ],
      [
        "气",
        "候"
      ],
      [
        "反",
        "应"
      ],
      [
        "探",
        "索"
      ],
      [
        "知",
        "识"
      ],
      [
        "重要",
        "的"
      ],
      [
        "物",
        "品"
      ],
      [
        "”",
        "的"
      ],
      [
        "▁th",
        "e"
      ],
      [
        "评",
        "论"
      ],
      [
        "如",
        "下"
      ],
      [
        "正",
        "在"
      ],
      [
        "。",
        "最后"
      ],
      [
        "▁",
        "l"
      ],
      [
        "▁",
        "8"
      ],
      [
        "的",
        "故事"
      ],
      [
        "看",
        "到"
      ],
      [
        "条",
        "件"
      ],
      [
        "也",
        "是"
      ],
      [
        "目",
        "标"
      ],
      [
        "时",
        "候"
      ],
      [
        "▁",
        "给定"
      ],
      [
        "。",
        "1."
      ],
      [
        "，",
        "为"
      ],
      [
        "▁",
        "x"
      ],
      [
        "阅",
        "读"
      ],
      [
        "排",
        "序"
      ],
      [
        "段",
        "落"
      ],
      [
        "销",
        "售"
      ],
      [
        "子",
        "的"
      ],
      [
        "美",
        "味"
      ],
      [
        "北",
        "京"
      ],
      [
        "a",
        "s"
      ],
      [
        "，",
        "每"
      ],
      [
        "。",
        "根据"
      ],
      [
        "丰",
        "富"
      ],
      [
        "购",
        "物"
      ],
      [
        "寻",
        "找"
      ],
      [
        "不",
        "错"
      ],
      [
        "是",
        "“"
      ],
      [
        "问题",
        "："
      ],
      [
        "、",
        "《"
      ],
      [
        "鸡",
        "蛋"
      ],
      [
        "里",
        "，"
      ],
      [
        "平",
        "方"
      ],
      [
        "电",
        "子"
      ],
      [
        "是什么",
        "？"
      ],
      [
        "日",
        "期"
      ],
      [
        "添",
        "加"
      ],
      [
        "错",
        "误"
      ],
      [
        "▁",
        "in"
      ],
      [
        "利",
        "用"
      ],
      [
        "欢",
        "迎"
      ],
      [
        "▁",
        "C"
      ],
      [
        "为",
        "："
      ],
      [
        "20",
        "2"
      ],
      [
        "。",
        "例如"
      ],
      [
        "混",
        "合"
      ],
      [
        "天",
        "空"
      ],
      [
        "h",
        "e"
      ],
      [
        "都",
        "有"
      ],
      [
        "请",
        "问"
      ],
      [
        "这",
        "篇"
      ],
      [
        "创",
        "意"
      ],
      [
        "0",
        "."
      ],
      [
        "。",
        "他"
      ],
      [
        "汽",
        "车"
      ],
      [
        "后",
        "，"
      ],
      [
        "义",
        "词"
      ],
      [
        "8",
        "."
      ],
      [
        "。",
        "\""
      ],
      [
        "字符",
        "串"
      ],
      [
        "的",
        "情感"
      ],
      [
        "力",
        "和"
      ],
      [
        "常",
        "见"
      ],
      [
        "巧",
        "克"
      ],
      [
        "事",
        "件"
      ],
      [
        "关键",
        "词"
      ],
      [
        "。",
        "另"
      ],
      [
        "是",
        "在"
      ],
      [
        "管",
        "理"
      ],
      [
        "▁t",
        "o"
      ],
      [
        "宇",
        "宙"
      ],
      [
        "感",
        "谢"
      ],
      [
        "，",
        "那"
      ],
      [
        "基",
        "于"
      ],
      [
        "简单",
        "的"
      ],
      [
        "意",
        "大利"
      ],
      [
        "提",
        "取"
      ],
      [
        "蛋",
        "糕"
      ],
      [
        "因",
        "素"
      ],
      [
        "。",
        "首先"
      ],
      [
        "英",
        "语"
      ],
      [
        "第",
        "一"
      ],
      [
        "》",
        "、《"
      ],
      [
        "思",
        "考"
      ],
      [
        "，从",
        "而"
      ],
      [
        "▁",
        "S"
      ],
      [
        "。好的",
        "，我"
      ],
      [
        "这",
        "种"
      ],
      [
        "问题",
        "，"
      ],
      [
        "中",
        "心"
      ],
      [
        "上",
        "最"
      ],
      [
        "评",
        "价"
      ],
      [
        "pr",
        "int("
      ],
      [
        "巧克",
        "力"
      ],
      [
        "物",
        "体"
      ],
      [
        "，",
        "它们"
      ],
      [
        "分",
        "别"
      ],
      [
        "控",
        "制"
      ],
      [
        "吸",
        "引"
      ],
      [
        "g",
        "e"
      ],
      [
        "吗？",
        "当然可以"
      ],
      [
        "的",
        "文章"
      ],
      [
        "讲",
        "述"
      ],
      [
        "的",
        "小"
      ],
      [
        "成",
        "功"
      ],
      [
        "r",
        "o"
      ],
      [
        "温",
        "暖"
      ],
      [
        "下",
        "，"
      ],
      [
        "说",
        "明"
      ],
      [
        "▁",
        "生成一个"
      ],
      [
        "▁",
        "y"
      ],
      [
        "不",
        "会"
      ],
      [
        "组",
        "成"
      ],
      [
        "▁",
        "is"
      ],
      [
        "。但",
        "是"
      ],
      [
        "网",
        "站"
      ],
      [
        "令",
        "人"
      ],
      [
        "。",
        "总"
      ],
      [
        "美丽",
        "的"
      ],
      [
        "网",
        "络"
      ],
      [
        "情",
        "节"
      ],
      [
        "a",
        "c"
      ],
      [
        "后",
        "的"
      ],
      [
        "小",
        "明"
      ],
      [
        "p",
        "p"
      ],
      [
        "自",
        "动"
      ],
      [
        "方",
        "程"
      ],
      [
        "随",
        "着"
      ],
      [
        "披",
        "萨"
      ],
      [
        "神",
        "秘"
      ],
      [
        "之一",
        "。"
      ],
      [
        "手",
        "机"
      ],
      [
        "著名",
        "的"
      ],
      [
        "有",
        "很多"
      ],
      [
        "有趣",
        "的"
      ],
      [
        "2",
        "5"
      ],
      [
        "只",
        "有"
      ],
      [
        "”",
        "，"
      ],
      [
        "哪",
        "个"
      ],
      [
        "▁",
        "o"
      ],
      [
        "形",
        "式"
      ],
      [
        "喜欢",
        "的"
      ],
      [
        "例",
        "子"
      ],
      [
        "数",
        "的"
      ],
      [
        "的",
        "发展"
      ],
      [
        "放",
        "入"
      ],
      [
        "▁",
        "10"
      ],
      [
        "列",
        "出"
      ],
      [
        "食",
        "品"
      ],
      [
        "方",
        "案"
      ],
      [
        "。请",
        "问"
      ],
      [
        "关",
        "注"
      ],
      [
        "饮",
        "料"
      ],
      [
        "当",
        "地"
      ],
      [
        "可以",
        "通过"
      ],
      [
        "1",
        "8"
      ],
      [
        "特",
        "别"
      ],
      [
        "是",
        "多少"
      ],
      [
        "美",
        "好"
      ],
      [
        "不",
        "仅"
      ],
      [
        "法",
        "律"
      ],
      [
        "味",
        "道"
      ],
      [
        "夏",
        "天"
      ],
      [
        "。",
        "我们"
      ],
      [
        "化",
        "学"
      ],
      [
        "▁",
        "×"
      ],
      [
        "气",
        "温"
      ],
      [
        "。",
        "4."
      ],
      [
        "原",
        "因"
      ],
      [
        "▁",
        "h"
      ],
      [
        "水",
        "果"
      ],
      [
        "技",
        "巧"
      ],
      [
        "红",
        "色"
      ],
      [
        "▁",
        "A"
      ],
      [
        "预",
        "测"
      ],
      [
        "，",
        "您可以"
      ],
      [
        "。",
        "给我"
      ],
      [
        "：\n",
        "1."
      ],
      [
        "类",
        "别"
      ],
      [
        "专",
        "业"
      ],
      [
        "a",
        "m"
      ],
      [
        "值",
        "得"
      ],
      [
        "机器",
        "学习"
      ],
      [
        "▁",
        "B"
      ],
      [
        "人",
        "生"
      ],
      [
        "以",
        "上"
      ],
      [
        "本",
        "书"
      ],
      [
        "实",
        "际"
      ],
      [
        "事",
        "情"
      ],
      [
        "经",
        "济"
      ],
      [
        "您",
        "需要"
      ],
      [
        "快",
        "乐"
      ],
      [
        "▁",
        "生成"
      ],
      [
        "。",
        "其"
      ],
      [
        "地",
        "区"
      ],
      [
        "环",
        "保"
      ],
      [
        "有",
        "什么"
      ],
      [
        "形",
        "的"
      ],
      [
        "有",
        "一"
      ],
      [
        "流",
        "行"
      ],
      [
        "v",
        "er"
      ],
      [
        "这",
        "段"
      ],
      [
        "▁",
        "7"
      ],
      [
        "基",
        "本"
      ],
      [
        "为",
        "了"
      ],
      [
        "性",
        "。"
      ],
      [
        "现在",
        "请你"
      ],
      [
        "的",
        "重要"
      ],
      [
        "黑",
        "洞"
      ],
      [
        "放",
        "松"
      ],
      [
        "1",
        ","
      ],
      [
        "位",
        "于"
      ],
      [
        "如果",
        "你"
      ],
      [
        "▁将",
        "以下"
      ],
      [
        "里",
        "的"
      ],
      [
        "可以",
        "在"
      ],
      [
        "搜",
        "索"
      ],
      [
        "i",
        "m"
      ],
      [
        "意",
        "义"
      ],
      [
        "9",
        "."
      ],
      [
        "生",
        "态"
      ],
      [
        "等",
        "等"
      ],
      [
        "搅",
        "拌"
      ],
      [
        "复",
        "杂"
      ],
      [
        "一",
        "步"
      ],
      [
        "▁",
        "e"
      ],
      [
        "的",
        "应用"
      ],
      [
        "均",
        "匀"
      ],
      [
        "有",
        "一个"
      ],
      [
        "中",
        "最"
      ],
      [
        "大",
        "小"
      ],
      [
        "哺",
        "乳"
      ],
      [
        "改",
        "变"
      ],
      [
        "的",
        "电影"
      ],
      [
        "相",
        "似"
      ],
      [
        "s",
        "e"
      ],
      [
        "设",
        "备"
      ],
      [
        "部",
        "电影"
      ],
      [
        "海",
        "洋"
      ],
      [
        "操",
        "作"
      ],
      [
        "面",
        "包"
      ],
      [
        "转",
        "换"
      ],
      [
        "，",
        "这个"
      ],
      [
        "一",
        "组"
      ],
      [
        "兴",
        "趣"
      ],
      [
        "。好的，",
        "那"
      ],
      [
        "三",
        "角"
      ],
      [
        "表",
        "格"
      ],
      [
        "满",
        "足"
      ],
      [
        "虽",
        "然"
      ],
      [
        "状",
        "态"
      ],
      [
        "搭",
        "配"
      ],
      [
        "小",
        "时"
      ],
      [
        "可以",
        "帮助"
      ],
      [
        "为",
        "什么"
      ],
      [
        "物",
        "理"
      ],
      [
        "。\n",
        "2."
      ],
      [
        "客",
        "户"
      ],
      [
        "接",
        "下来"
      ],
      [
        "i",
        "l"
      ],
      [
        "最",
        "终"
      ],
      [
        "让",
        "我"
      ],
      [
        "宠",
        "物"
      ],
      [
        "美",
        "元"
      ],
      [
        "读",
        "者"
      ],
      [
        "等",
        "于"
      ],
      [
        "2",
        "00"
      ],
      [
        "孩",
        "子"
      ],
      [
        "持",
        "续"
      ],
      [
        "。",
        "而"
      ],
      [
        "顺",
        "序"
      ],
      [
        "计",
        "划"
      ],
      [
        "▁",
        "描述"
      ],
      [
        "景",
        "点"
      ],
      [
        "的",
        "总"
      ],
      [
        "了",
        "，"
      ],
      [
        "美",
        "的"
      ],
      [
        "对",
        "话"
      ],
      [
        "的",
        "天气"
      ],
      [
        "蓝",
        "色"
      ],
      [
        "。",
        "当然"
      ],
      [
        "词",
        "语"
      ],
      [
        "符",
        "合"
      ],
      [
        "将",
        "其"
      ],
      [
        "番",
        "茄"
      ],
      [
        "清",
        "单"
      ],
      [
        "继",
        "续"
      ],
      [
        "独特",
        "的"
      ],
      [
        "en",
        "t"
      ],
      [
        "效",
        "果"
      ]
    ]
  }
}